[PAD]
[UNK]
[CLS]
[SEP]
[MASK]
<S>
<T>
!
"
#
$
%
&
'
(
)
*
+
,
-
.
/
0
1
2
3
4
5
6
7
8
9
:
;
<
=
>
?
@
[
\
]
^
_
`
a
b
c
d
e
f
g
h
i
j
k
l
m
n
o
p
q
r
s
t
u
v
w
x
y
z
{
|
}
~
¡
¢
¬
®
¯
°
±
´
·
º
¼
½
¾
×
ˇ
י
ל
ע
ת
–
—
‘
’
“
”
†
•
…
″
™
∙
▪
▶
◆
★
☆
✅
。
双
合
好
尺
常
式
款
看
码
这
适
非
鞋
！
，
：
🍅
🎥
🐈
👌
👍
👏
💖
💗
💜
💞
😀
😆
😉
😊
😍
😖
😘
😞
##m
##u
##s
##i
##n
##g
##v
##e
##r
##y
##o
##t
##c
##h
##a
##d
##0
##w
##f
##l
##p
##4
##q
##b
##k
##6
##1
##5
##x
##7
##8
##z
##9
##3
##2
##j
##®
##°
##½
##´
##🐈
##±
##ל
##י
##ת
##ˇ
##×
##™
##¢
##★
##👏
##º
##😘
##¾
##☆
##😆
##😍
##👍
##💖
##👌
##💗
##¼
##😊
##¬
th
the
##er
##in
##nd
##or
##at
##ou
it
to
##ed
##es
and
##ing
##ll
##it
##on
##re
##as
##is
##en
##ar
##an
is
##le
##om
##ot
in
##ic
this
##ut
of
##ve
on
for
re
ha
##et
##se
br
##ct
##gh
##ly
##st
my
be
##al
##oo
wh
st
##ch
you
pr
##ow
##ith
that
with
##all
##ay
##ld
##id
##ght
##ur
##ver
was
##me
we
but
not
##ad
so
##ion
##ce
##ent
have
li
##ke
##ter
as
an
##ck
sh
##th
are
##ble
pro
##ir
ver
##ally
se
do
wor
##ill
very
##pp
ch
##ould
##ust
##ice
he
ne
##reat
com
##ook
they
##ri
ex
lo
##ect
great
al
one
can
or
##ood
##ag
##ess
##am
##ore
de
at
all
##ight
pl
##ack
##il
fr
like
su
work
me
##ul
am
us
qu
##ap
co
just
good
##uct
##ant
out
up
##able
##ast
##ome
##im
##ain
##if
##out
con
##el
get
use
look
these
##one
##ers
if
##ity
##ie
##est
would
when
prod
##ak
##ound
bu
fe
product
##au
from
them
has
ab
will
##ere
mo
really
##em
well
sp
##ive
##and
tr
##ough
eas
had
##un
##ig
than
any
##ort
ti
##art
no
##ard
more
##op
##ol
##ame
rec
##us
love
##ate
##ide
##ven
le
##ought
##her
en
time
##ite
oth
##ong
##ality
##erf
ever
comp
##ake
your
##ge
some
go
about
does
ad
quality
##so
##itt
bec
##ind
what
##ick
##act
too
af
##ure
##iz
wat
mu
un
##um
there
##ation
##ab
did
##ause
also
##ine
##ase
need
other
only
exp
##ear
##ace
how
price
much
##ist
##ep
because
sc
perf
##os
sm
over
don
pur
##mend
recom
34
##ich
easy
recommend
nice
after
buy
ar
every
##ade
cl
off
##ink
##ittle
little
##ays
bought
pre
which
want
##ies
##av
##az
##ue
even
fl
perfect
back
set
bl
bo
kn
got
##igh
##end
light
##ment
##ting
##ved
bet
##ff
##age
fit
purch
##ro
now
dis
##ip
by
##hing
##vie
man
she
thing
ro
ke
ve
gr
high
been
used
##ous
im
fir
##ens
works
##ach
##are
its
amaz
##ry
were
int
tw
te
str
ag
made
po
could
##ves
year
play
des
small
sa
##urn
##der
inst
watch
bot
##fer
long
##own
better
first
##ile
##int
hand
che
ho
who
siz
##ased
mat
bag
lot
##our
##lf
put
car
##ily
op
##ac
##ty
##ass
dif
cle
still
using
##ving
##00
##pl
##tr
feel
##ud
tri
her
make
col
aw
bat
happ
##eri
##nt
way
app
ph
dr
then
mon
act
##ions
new
##ull
##ose
##ish
think
color
see
##omet
our
looks
sound
keep
two
##ond
hel
cr
ac
mak
gl
char
read
sl
##view
##thing
best
somet
into
##air
size
book
seem
know
review
##ire
thr
old
help
##other
order
##ail
##ave
##ually
his
res
##ict
##fort
##ft
part
looking
their
##ign
##ult
cam
right
differ
def
##blem
big
problem
bit
last
expect
pack
##ree
down
find
##pr
most
few
##mo
hold
again
spe
pe
gu
batter
##ower
fun
##per
while
day
pret
##qu
try
wr
tv
enough
fo
didn
##ks
##ipp
##fore
doesn
sim
##les
add
##ple
pretty
##ug
##ever
##ence
##pt
many
sin
around
head
hard
case
##ars
since
dec
##ci
amazon
scre
before
happy
month
##ated
cont
##ger
##li
cheap
##dy
sw
##ful
cut
min
far
##riend
something
should
take
same
inc
##ance
##self
pict
##orm
exce
without
game
say
##pe
may
##app
sec
never
##ark
wee
another
supp
start
item
##astic
##ord
##wn
box
found
##ans
sure
through
defin
wear
jo
comfort
##ph
##ool
water
years
##ub
though
##nder
camer
purchased
##imes
different
##get
##ount
##ber
makes
sho
##oney
lar
##fe
##less
##ning
definite
rece
sur
ser
##oy
purchase
clean
stor
going
however
worth
##ather
end
##ition
friend
definitely
##ways
##oth
design
acc
##side
dur
##ise
##te
money
##ps
##ious
##gr
##ang
came
room
repl
tak
thought
##ason
bott
where
ret
always
under
sk
give
camera
own
son
top
##ild
##ating
easily
pie
##ouse
##ier
comfortable
##bo
being
both
##ople
getting
phone
tried
people
##ift
##gin
##ings
##ical
##vice
fin
highly
##edi
##itch
##ors
inter
turn
actually
quick
prot
##ets
##read
bel
##ash
##ange
come
battery
##ows
open
##aut
iss
##ures
gi
those
everything
able
real
##ents
gift
install
##oss
fil
cons
things
stand
needed
##io
quite
wanted
imp
ple
##ix
##aught
##bs
bad
recei
##llent
seems
run
di
fine
excellent
picture
hop
kid
sy
side
once
10
##uff
brand
amazing
beaut
here
ll
cover
##up
##ts
home
protect
##ction
ordered
es
less
##de
worked
disapp
vide
fits
full
##ably
##avor
dog
##ces
having
ear
##ual
weight
him
sol
##aw
comes
##nect
##joy
war
##ensive
days
att
enjoy
plastic
return
cou
compl
feat
heav
##be
##ush
power
##xt
reviews
soft
disappo
##ute
beautif
hour
super
screen
connect
months
eff
##vel
large
anything
##day
##erial
reg
loves
##ular
times
##esome
##ible
##ife
##ee
incl
##ations
away
##we
replace
perfectly
awesome
job
each
fast
black
movie
##most
##ruct
##ided
ext
overall
dri
clear
second
el
abs
material
bre
##aughter
life
took
sever
includ
rem
##ary
house
almost
##ised
expected
20
##inted
pers
sn
reason
exact
##ton
##gether
place
stur
##ately
received
ty
won
yet
fact
speak
night
##ead
several
together
working
##ys
sty
beautiful
##ert
such
##ten
kind
hair
cost
wond
##ones
extr
##atch
##mm
anyone
heavy
video
sturdy
kids
##ked
strong
bab
##els
inside
person
table
##gg
##band
fam
tast
arri
wa
wall
comple
said
card
gam
adj
must
point
##ues
##iv
##wh
cap
bright
free
##uck
tool
##stem
daughter
met
mus
system
##ock
##ready
buying
carry
##ller
already
coll
adjust
##cess
deal
shipp
cool
bed
##ren
##ides
wish
stuff
let
pair
##cially
##og
sle
##cri
bro
why
contr
unit
stick
piece
might
inf
skin
ok
air
low
##llow
##ooth
week
simple
cor
mod
exactly
stars
##od
remo
##ner
##ote
products
recommended
ones
prob
loved
ind
hus
##ness
pick
prov
sme
val
##erful
##til
store
nothing
care
##alk
others
break
extra
ori
pock
##ider
quickly
espe
problems
##press
surpr
##ib
short
especially
em
husband
##ied
##ont
absol
smell
started
disappointed
button
tell
##ouch
experi
absolute
expensive
##ugg
##ments
next
dire
hours
baby
##ory
##led
probably
disc
isn
couple
origin
red
bar
##utes
complain
cable
##ics
ste
saw
##als
wasn
##ape
arrived
ed
port
sat
test
ref
show
av
went
##iced
bas
ele
durable
##ats
strap
effect
absolutely
##ling
favor
gre
call
three
friends
opt
child
weeks
##ative
batteries
decided
hope
family
b00
##ia
compan
minutes
descri
trying
##amp
story
det
tight
##vious
glass
dv
done
gen
pain
##ention
##ither
inch
##ently
per
##ced
deli
plus
cute
support
pleased
aut
fall
coff
##ject
complete
##gan
##ically
control
##ew
trave
colors
music
##ream
handle
shar
until
##ited
fan
device
impress
feels
list
longer
cur
ey
##ne
##reme
deliver
##ates
##stand
bottom
making
##phone
##iss
##ots
chr
ter
least
##ater
##ilt
coffee
myself
whole
belie
face
pay
##ax
gave
##ump
result
leather
hd
star
screw
wind
ago
issues
instead
rel
##ustom
##fic
cho
needs
##ility
instruct
during
##tc
white
plan
main
##its
charg
custom
thick
##ward
##pped
gets
maybe
bul
##line
phot
food
hu
##isf
direct
oil
##ric
tot
key
wife
alth
glad
film
wonderful
ide
##ial
scr
shipping
extreme
games
although
mic
vers
smaller
haven
half
lear
playing
dvd
either
hot
##vent
##cks
mount
##tt
itself
##ons
const
else
level
comput
##mb
##ient
##lic
##light
front
couldn
ip
issue
value
loc
space
smooth
function
takes
taking
etc
ins
setting
##board
stay
looked
class
favorite
##ams
press
dry
##ices
pres
move
##osed
##ption
near
dark
pull
consider
satisf
company
line
left
charact
change
##aper
easier
thanks
experience
wash
neck
spr
match
##que
check
packag
ap
band
##ume
rep
##apt
12
##ines
##ters
doing
sub
perform
mark
touch
thin
original
past
chair
bottle
close
everyone
betwe
between
aud
hands
solid
sharp
cert
##aid
liked
swe
fig
loo
seen
charge
extremely
led
wouldn
remote
appear
##where
15
##ware
player
creat
pan
sun
##ized
pad
stud
computer
ob
##oor
##ured
items
##ully
service
believe
cord
##erg
switch
lens
##ath
##vers
taste
mine
requ
mult
##ins
form
amount
trans
addition
compar
type
mag
toy
attach
upd
fair
##ale
thank
##ny
built
##room
style
exc
finally
feature
##gth
conc
interest
htt
##ime
##ned
##ired
cond
##antly
sleep
sch
##iet
##cc
leg
lights
reading
http
100
wait
bir
mar
##enc
sometimes
features
##tern
trip
gir
tea
sing
diffic
aff
wire
blu
guess
##phones
finish
var
##ank
##vert
someone
vol
##ply
##ilar
regular
metal
##aced
simply
replacement
nat
num
useful
follow
christ
mach
sit
inv
difference
blue
wrong
##ell
goes
shoes
begin
holds
decent
travel
instructions
##ret
##ages
certain
ball
norm
##inter
spend
grand
rest
wood
comm
keeps
bi
cook
##not
slight
access
gar
huge
kit
##itive
lapt
mom
ring
##ific
gives
laptop
mix
##ips
vis
##mi
##mas
plug
pieces
online
dep
heal
##elt
poor
hol
soon
##ains
tech
fant
often
within
chang
feet
ent
drink
larger
pocket
30
conf
import
rub
asse
helps
##irt
seat
along
results
apart
audio
rather
dam
gri
body
safe
gener
cannot
package
due
##iny
usually
bags
lots
avail
mess
pos
##aps
cour
pot
model
says
##king
organ
mov
##ung
yes
allow
surprised
series
net
stop
difficult
fix
##ened
build
##cial
four
medi
sil
##aster
pictures
wearing
mid
warm
included
satisfied
movies
dist
##sy
##bed
project
##pping
##aph
##play
fantastic
walk
zipp
understand
fill
ir
##ds
##ense
similar
impro
##esh
asin
world
lost
nicely
##aces
completely
felt
mind
sign
##mmer
hook
##let
ass
proper
outside
##ouble
##asing
area
running
totally
dig
##way
advert
headphones
iphone
##net
broke
cart
cab
##ional
##ize
arm
poss
prof
contin
elect
green
christmas
pill
paper
##ann
whe
handy
idea
lock
flat
customer
hang
noticed
live
seller
books
parts
cheaper
available
50
mor
pass
##ove
##ution
flash
scratch
lab
wide
##rant
guit
heads
speakers
impressed
hor
kitch
##ges
##kes
monit
##ian
uses
purp
fold
photo
health
cal
cloth
knife
previous
flavor
machine
course
kitchen
hon
##par
record
##iness
hear
los
usb
ipad
##arch
typ
miss
##ky
door
partic
update
pat
sav
##itting
collect
lou
mention
pow
notice
roll
save
##ress
shape
##aining
leave
helpful
drive
mot
range
##lo
given
single
volume
fab
later
cup
imm
sens
##rible
version
cat
##arent
entire
waste
standard
detail
fing
pract
search
##ered
lit
tem
##pect
told
sugg
##unately
non
prom
school
suggest
shows
sell
foot
pol
##ior
##rect
ann
cas
##ster
beh
doll
draw
##weight
natur
pop
##ex
guitar
##ah
##ening
##oof
youn
progr
putting
afford
contro
condition
birth
sent
##put
note
ang
true
honest
cent
fre
hum
##erious
sounds
five
##ls
##ken
##ades
cards
occ
##lish
brush
##tract
charger
bigger
auth
##mber
##dd
##wise
201
len
##pack
send
comb
speaker
sams
##iting
leak
uni
200
##enty
inform
##ept
pump
##ork
thinking
##iew
oper
##ube
slightly
important
paid
treat
##uc
##to
##ital
deep
suit
unfort
drop
storage
base
da
kept
serious
view
recently
local
monitor
speed
accur
remove
children
present
pound
##man
##uf
##face
shower
matter
loose
ye
prefer
particular
length
vac
##ator
otherwise
##tress
advertised
##ene
##ird
dev
mean
installed
compared
##ted
##ding
season
worry
secure
turned
correct
packaging
eye
based
men
ps
##fully
conven
bus
floor
dress
board
mattress
added
effective
market
burn
##ined
##ires
##ustr
##arely
camp
supposed
rid
##br
allows
adv
expl
multip
fairly
birthday
dro
##rop
##ants
smart
display
slow
special
dogs
construct
excited
normal
hit
##tle
##ww
##ities
##ability
desk
pockets
sal
##co
eng
boy
lightweight
seemed
protection
neckl
wireless
ble
fut
##ler
print
belt
characters
rubber
fail
lower
sto
##cept
acr
cleaning
##uly
coming
attract
opin
filter
certainly
##arm
unless
setup
watching
spec
designed
er
ray
##na
chann
plenty
helped
##ufact
ton
##aged
##unk
stra
bath
figure
samsung
##ane
gold
office
manufact
giving
unfortunately
##acks
##box
straight
##bb
today
meas
resp
party
wrist
inches
techn
across
push
##oun
expecting
complim
##ze
backpack
older
delivery
number
immedi
##redi
stri
buttons
purpose
step
living
ant
lose
incredi
ended
brands
tools
performance
natural
www
##row
##50
process
chain
fresh
cold
leav
enter
played
hdmi
eat
equ
##ising
held
##apter
post
okay
necklace
##mit
grow
sweet
profess
loud
##com
##dle
##earch
research
mini
concer
morning
opinion
bass
##over
##inting
aren
##pper
##umb
choice
keyboard
obvious
holes
lay
luck
wants
ready
broken
daily
ev
vo
##red
##ident
quest
everyday
screws
fle
lau
##book
bring
##illed
mem
lead
text
described
glasses
nut
##erc
##ination
##ctions
sold
likes
art
blade
##ended
imag
shoe
mil
name
##und
##tain
##ask
##ried
##rid
load
means
feeling
opened
returned
bike
pen
reach
truly
yourself
clos
firm
shoot
warrant
description
19
wom
##ering
##rent
future
immediately
##ister
twice
owned
learn
fabric
gone
##ii
exam
##aus
##ement
##olog
tablet
eyes
11
glo
steel
called
grip
digital
affordable
bal
cream
##ories
heat
anyway
dish
supple
hoping
tiny
delic
provides
option
##ups
##ina
knew
purchasing
higher
##acing
settings
40
##ming
##ience
upgr
energ
watches
properly
bor
reme
beat
##ield
sony
charging
13
dim
lugg
mouse
##ying
##atic
##ision
brace
dead
anywhere
straps
headset
annoy
young
count
tun
##zz
##ipment
possible
16
cell
dut
self
earr
##ugged
lin
tre
##fet
##oub
neg
exerc
except
character
improve
business
warranty
stream
printer
##ills
##rib
compact
fully
behind
program
information
accurate
devices
##aj
##lect
including
portable
current
##ially
##cus
##ope
##itten
contact
surface
enjoyed
multiple
luggage
3d
##col
noise
action
slee
spray
##iety
18
tend
ink
rele
spot
stopped
remember
din
##mble
##more
heart
mode
spent
##unch
keeping
basic
interesting
##ther
cartrid
pet
##ery
forward
frame
above
##azy
taken
please
assemb
##ms
##yc
##aft
throw
##ipped
##like
complaint
##ency
occas
author
gp
inex
summer
holding
contain
wallet
fur
ill
rad
##he
replaced
pressure
attractive
event
talk
##hip
shel
workout
##orts
adapter
graph
against
##load
manufactur
oh
##mp
separ
recip
expectations
reasonable
pounds
convenient
energy
cause
fly
mother
par
wal
##work
clip
materials
edge
compliments
##ature
brother
grill
bedroom
inexp
14
barely
opening
installation
catch
hate
lamp
tape
##ives
flim
manual
stores
zipper
collection
duty
inexpensive
mir
wow
##rew
seal
chance
ground
resist
written
##apped
provide
considering
professional
##ror
##ron
##ether
track
compart
image
hole
ordering
guy
cutting
careful
25
fire
vit
lovely
become
##ument
focus
connected
connection
legs
center
frequ
gloves
hur
max
pu
##aim
reli
worn
frustr
bun
pleas
invest
##outh
stain
priced
trouble
anymore
coun
shipped
flimsy
vib
##gar
##etooth
unlike
sized
protector
videos
bluetooth
id
jump
link
##uit
##irc
heard
hose
apple
slide
nearly
medium
unique
construction
bow
mail
sand
cop
feed
gotten
directions
mentioned
60
bene
har
lack
none
rug
sad
squ
moder
activ
crack
write
clothes
earrings
caus
##ises
stock
outd
teach
actual
stylish
middle
cables
memory
maj
rate
rating
onto
anim
fell
spo
keys
appre
mostly
internet
photos
temper
fat
hi
lid
round
##ism
brown
stuck
##izer
solution
delivered
additional
##retch
finger
controller
je
tough
necess
plays
buck
adult
##umin
rock
apply
shock
adjustable
major
fa
##lla
##verage
shut
shirt
trust
guide
returning
clearly
assemble
yellow
mac
ran
##head
stretch
##ulous
sizes
seconds
options
circ
gun
##con
stays
shot
choo
##aking
depend
dust
##ances
init
ingr
whate
pros
holder
complaints
peri
sort
tag
##gs
##ging
##ku
##eric
##orn
##sel
cant
bud
turns
various
variety
continue
label
whatever
ears
mist
toys
moving
crazy
functions
receive
collar
window
packaged
damage
camping
doub
jack
##sc
##ners
weak
sets
happened
ess
provided
terrible
changed
position
loss
flex
appreci
double
furn
faster
rain
wet
##use
##oid
height
somewh
silver
ingredi
somewhat
jew
##ik
##af
##chan
upon
##iff
seeing
slip
##body
whether
stro
##ief
trick
enc
##istic
appro
attention
attached
pillow
period
bol
eating
sides
##uce
##action
funny
cameras
diam
covers
software
personal
##rench
dropped
hy
nail
pink
##eds
##isk
areas
dont
lasted
chocol
classic
honestly
channels
sense
via
##case
##port
##char
places
mechan
claim
disp
writing
##lix
incre
bottles
appears
bracelet
negative
age
sitting
tall
##yl
##old
##ley
stren
grind
minim
personally
##ivid
liter
##aa
webs
ask
suc
amz
flaw
runs
discover
charged
beginning
healthy
angle
obviously
##ology
supplement
bon
cast
cups
ul
##haps
##80
lim
china
alone
output
##akes
spl
desp
##velop
perhaps
repair
annoying
cry
third
worst
quiet
prevent
tele
guys
content
dial
carrying
picked
smells
levels
girl
chocolate
cand
ice
parent
wip
##son
##asp
shop
useless
scan
cross
diet
wheels
jewel
dan
junk
##oc
##back
##ences
weather
lol
plugged
americ
chew
drill
##ubes
paint
constantly
projector
bathroom
leaves
hes
winter
##gl
##cy
tow
log
user
instr
bulb
bulky
total
spring
wheel
benef
essent
kick
tear
##uum
##orge
##ries
twist
reviewers
foam
starting
throughout
accom
consist
basically
falling
netf
iron
cabin
delicious
strength
amzn
date
fi
tit
tar
##ases
trad
becom
defect
removed
study
horrible
vacuum
imagine
upgrade
manufacturer
fash
med
page
##ued
suff
##ards
purse
##roid
roku
tested
measure
vitam
ten
tim
wed
##ishing
novel
applic
positive
equipment
eventually
##selves
average
opp
sister
##ration
##oors
##anced
asked
placed
sugar
##ifi
##iece
moist
grou
apps
secur
learning
chairs
require
graphics
despite
netflix
nor
pouch
sour
vel
##ym
##oom
##by
scen
block
gaming
surprising
figured
electric
##roph
counter
mis
nav
sor
tab
##ese
wore
ease
god
smo
bother
effects
bulbs
microph
ingredients
success
lbs
mouth
##rit
##ob
ther
##iture
likely
sus
bucks
minor
early
autom
walking
powder
stainless
fashion
24
sque
##ma
android
##itions
rechar
##iding
develop
road
teet
saying
absor
dollars
rich
##sw
butter
comment
##graph
flashlight
powerful
practice
anti
temperature
furniture
website
17
dad
gear
lines
pin
sink
input
bend
soap
doc
altern
lighting
sheets
resol
download
##proof
##lier
minute
snow
windows
media
voice
nar
ways
socks
shown
alarm
plot
offer
craft
packed
decor
points
listen
##mbre
cases
hesit
cats
hat
tube
umbre
win
##time
##allen
ship
neigh
canon
##ili
##ational
click
below
reliable
choose
gard
zoom
##20
##icient
##oop
worse
challen
mel
hasn
offers
boots
##ension
strings
lasts
##encil
neighb
ep
fight
hist
kill
pc
pool
pages
vi
##ium
##cing
##lus
##etic
brought
share
whenever
moved
tip
everywhere
clar
slipp
shopping
surv
eleg
directly
functional
situ
general
recording
missing
saved
seriously
goo
mass
rot
##vable
##for
tone
##urs
##kend
compet
lighter
watched
trips
peel
mounted
multi
interested
electron
incredible
radio
bark
ju
od
song
##sh
##nam
thread
web
weigh
words
##ppy
##ify
themselves
ability
scent
flow
blades
known
handles
happier
swim
attem
effort
individ
organic
bunch
oz
pure
rou
rough
ske
##ov
##bing
##10
exist
death
hass
##roc
##ished
weekend
friendly
disappoint
tastes
edges
texture
shelf
bonus
90
bes
gorge
ra
##min
##ux
##gle
##60
shamp
doct
training
##acy
cred
packing
boxes
disappointing
include
snap
infl
normally
fingers
literally
##glass
gorgeous
shampoo
rack
tap
##gn
##oon
trash
truck
##uss
cris
adding
includes
avoid
##ney
learned
sensitive
concerned
exercise
further
necessary
limited
fake
pencil
##ded
##bly
washing
answ
chem
neat
ador
knock
happens
phones
shoulder
##wards
transfer
girlf
types
modern
jewelry
security
wifi
##my
##eed
repe
meet
compat
regret
magn
distance
blend
sorry
router
rings
tired
wii
xbox
stitch
##irty
##ified
concept
##used
intended
teen
##lied
waterproof
receiver
syn
covered
surprise
refund
controls
panel
motor
cartridges
umbrella
girlfriend
six
yard
##uced
##icer
##rier
prepar
accident
email
following
cooking
garage
network
silic
motion
incredibly
recipes
hassle
ut
##ero
##ites
tray
tips
aware
solar
indic
originally
micro
create
moment
signal
losing
searching
question
woman
80
law
##fy
##ata
prim
word
worried
ups
flip
amazed
carp
apparent
active
guest
snug
sticks
required
damaged
correctly
hurt
velc
fish
##mon
weird
anten
sex
##ula
##itted
##izing
stress
happen
cleaner
imposs
waist
caps
impressive
lenses
group
velcro
cush
lad
sau
##gest
forever
rear
prime
meat
uncom
##oses
strugg
hardware
ends
earlier
himself
regard
direction
ideal
common
accessories
doubt
instrument
viol
bill
gym
late
mask
ped
ru
##mer
##ss
##cd
##ison
##ener
##enced
wears
deg
knows
##fortable
heavier
appearance
girls
grandd
budget
parents
individual
impossible
boo
ce
vote
##bar
forget
scale
grab
safet
exception
starts
stories
beautifully
driver
factory
emp
ipod
laugh
example
assembly
outdoor
recharge
elegant
attempt
safety
fans
site
tree
und
##fl
stiff
alot
spots
grade
sale
slim
supply
surr
files
consum
capt
sunglass
finished
garb
changing
hooked
particularly
compartment
fol
##ta
##hn
##hic
beach
stap
##uring
##iring
usual
train
trail
boot
adds
##itional
##ground
turning
breaking
auto
##standing
relative
sweat
##ounting
improvement
release
##ycle
resistant
mistake
microphone
resolution
crisp
bur
est
pend
##vision
##cast
##friend
##erv
stre
prior
##right
became
crit
charm
knowing
stands
remind
capac
colle
hopefully
creative
changes
sleek
stroller
antenna
00
cin
hun
lg
obs
yog
##ost
##ato
shap
neph
##iling
meant
amp
clock
awful
##berry
wont
relax
scratches
salt
women
separate
ident
appreciate
diamond
minimal
american
squee
credit
surround
pants
rust
bell
sock
suck
mob
mold
##ization
images
corner
falls
report
arms
controll
engine
milk
streaming
mirror
chemical
nephew
ach
bars
mart
tor
thus
##eter
section
##ames
sup
offered
drain
decide
john
realized
thicker
signific
pattern
details
occasion
cryst
defective
scenes
uncomfortable
granddaughter
sunglasses
garbage
99
ride
##sm
##iant
##ra
##ox
##come
##kin
##eded
sof
moves
blood
vehic
intern
gifts
hoped
traveling
listed
combination
technology
balance
currently
copy
source
skept
doctor
70
pins
raz
##ef
##een
##aly
##aff
##form
##order
##asc
##lets
bey
##aded
lives
liqu
lifet
##key
deck
bubb
enem
compare
admit
drum
realize
driving
terms
planning
pads
sleeping
balls
poorly
suitcase
fu
gal
##wood
##iculous
proof
##ading
chick
alumin
outstanding
spare
sports
nose
blow
enjoying
##ogn
insert
requires
spending
improved
possib
hanging
selling
boyfriend
specific
bowl
lifetime
master
mounting
##res
##was
state
chines
plate
frag
thrilled
final
wonder
testing
matches
fixed
filled
noticeable
failed
channel
questions
country
fault
alternative
sauce
chinese
dirty
la
land
odd
rom
rated
##val
##11
##arant
lif
##apers
code
##anted
outf
##imate
compress
scar
players
packs
contains
cheaply
cuts
suppose
died
costs
bask
subst
typical
respon
strip
entertain
initially
wedding
adorable
compatible
capacity
beyond
500
gau
pub
risk
soo
wires
##equ
##cent
##land
refer
aspect
hell
##apan
recogn
env
wanting
blank
finding
guarant
headphone
reasons
showed
listening
charges
functionality
pulled
waiting
prompt
advant
frustrating
flexible
teeth
silicone
##washer
response
62
bang
father
japan
lat
util
##eal
##bit
##lling
##othing
bra
began
stat
aside
spin
spir
spark
##ateg
compon
background
##rod
carrier
hardly
superb
extend
ports
versat
washed
matcha
grandson
commun
previously
leaving
talking
cabinet
target
aluminum
32
dream
por
##vin
##lay
##ino
weld
##ifier
##ushing
##sole
closed
account
powered
models
indeed
##ledge
movement
tripod
allowed
casual
ridiculous
shooting
dishwasher
depending
discovered
empty
relatively
dirt
egg
fitting
pour
tal
van
##cr
##bers
tom
fort
stere
##idge
select
therefore
##ables
reasonably
insp
concern
container
application
surprisingly
garden
liquid
ahead
cake
cubes
rip
sits
tank
wer
wise
zero
##ring
##tube
##da
##ball
town
##arily
force
loving
##abil
clips
prec
string
efficient
experienced
smoothly
invol
vibrant
vitamin
carpet
skeptical
300
dest
lum
mad
rout
##ca
stable
youtube
chose
suction
agree
mats
biggest
wrink
filters
extended
pairs
corners
checked
bands
followed
drinking
practical
city
sou
tub
yr
##med
##sl
##rd
##zen
##ndred
brack
chips
##aging
plain
adequ
uns
flight
flav
rod
grad
##ously
phys
accept
##ipping
serv
kinda
babies
hundred
sensor
essential
##iliar
bubbles
weren
35
bent
las
lunch
lcd
ripped
##bon
##onna
stone
lip
sele
##amps
fruit
boys
grass
serving
brighter
info
##ibility
reflect
detect
terri
instruction
classy
object
cords
magnet
operate
##ropri
tons
growing
cartridge
becomes
history
apparently
pendant
caught
lets
tent
viz
##ga
##hile
brief
advent
##uments
strange
##lessly
replacing
beauty
meth
emerg
educ
mixed
menu
steps
hiking
clarity
juice
2nd
breat
french
gad
king
nik
##iest
##taining
##atically
tooth
##asy
##icated
brill
brings
printing
##ented
lift
shiny
delight
glue
swing
##appy
##ivity
sticky
paying
films
##ternal
##ification
potent
building
purposes
univers
vacation
meaning
explain
puppy
investment
nails
title
traditional
besides
galax
basket
versatile
stereo
lem
niece
tur
wine
##lock
##erm
toile
##reen
printed
comfy
orange
plants
usage
##itty
unb
didnt
##osa
##iction
wrap
standing
1080
elastic
affect
generally
frequently
animals
approach
google
cushion
envir
vizio
22
45
die
data
gall
gonna
hous
mg
rand
tie
wig
##gu
##how
todd
##ana
bear
##vern
##ental
limit
among
rob
role
veget
##ude
maker
fog
serum
protected
grey
foods
nature
plugs
younger
human
ps4
respons
compartments
television
moistur
narrow
toilet
27
3rd
dual
fave
ge
sight
zip
##wor
##por
states
##idence
shr
shade
comments
##ama
meal
##ules
sheet
knowledge
stronger
##ival
adjustment
showing
pulling
magic
message
zippers
constructed
boring
flying
mobile
method
gadget
galaxy
ben
bree
cash
file
tang
##ev
##raid
##cer
##ha
##erry
##icing
sequ
external
locks
##ager
allerg
console
sport
unable
expand
prep
diss
##ints
cars
colored
helping
##anship
accord
##asonic
breaks
steal
padding
numbers
moments
irrit
detailed
viewing
penny
contacted
mechanism
ult
danger
epis
electronics
odor
stitching
pedal
college
yoga
cri
crib
gas
gent
punch
vend
##uces
##ged
##hood
##wing
thor
threw
toss
stated
plant
coat
fem
afraid
pricey
flo
appropri
glow
##airs
bits
address
pictured
durability
strongly
tells
steam
loos
created
drawer
jeans
adults
bolts
neighbor
advantage
environ
cot
gh
honey
mal
##go
##30
##ches
prin
prices
notes
##ulty
##aks
spread
scal
arr
premi
deser
##erior
applied
decision
shouldn
protects
warning
cooler
removing
optical
visible
photograph
drops
timer
random
75
fac
field
ket
mill
ol
oun
sam
tilt
##met
##rate
##oma
##ads
shake
prop
seats
usa
cocon
watt
##ists
shell
straw
instant
trimmer
crap
glove
enjoyable
snack
kinds
brightness
calls
panasonic
formula
marks
depth
pills
scratched
ultr
prepared
possibly
nikon
brilliant
coconut
du
dy
mi
mild
pip
park
path
rail
sd
wake
wrench
##ru
stun
##tered
shipment
plat
##ulation
highest
awhile
reader
##cious
retail
impact
drives
wax
units
emot
tighten
fancy
chrome
lego
hooks
maxim
pleasantly
sadly
benefits
terrific
gentle
gel
hood
ri
rarely
vs
##vo
##ein
##dri
##90
inn
brain
notch
sole
shir
##illa
##essed
govern
adh
science
team
simpl
joy
comfortably
underne
##aughters
familiar
complex
picks
holid
filling
saving
popular
navig
crystal
adequate
thorough
underneath
aa
bread
boun
mur
pens
ur
wid
##rated
##den
##bble
##erous
##rees
forg
chest
##imin
bugs
##oles
somehow
##ples
wrapped
##arsh
stylus
removable
darker
studio
litter
2014
2013
ps3
caused
situation
songs
folks
vehicle
gauge
female
dar
groc
harm
oem
rat
sen
##night
##tical
##itter
##ury
weap
##iled
outlet
##aked
##olf
##icks
##izz
unf
clasp
##aving
evening
flu
blur
appeal
crash
reviewer
lasting
harder
##apping
interior
diaper
protective
extension
maintain
oils
considered
vision
folded
saves
advanced
##zzle
exercises
claims
dispos
benefit
automatically
disappointment
answer
rechargeable
breeze
premium
government
cd
cit
patch
##sa
##ec
##top
##lers
##zer
##ining
##orter
##ony
##icy
##uth
stup
plates
cod
##uction
##imately
bump
tire
ens
advice
##ensions
div
costume
dvds
location
subject
students
request
drinks
apartment
organized
assist
searched
english
dinner
cracked
absorb
challenge
socket
controllers
superior
chicken
guarantee
according
1st
ban
fau
ger
rig
sick
till
task
wo
##mg
##mart
##gain
##ey
##otes
stack
##change
thats
chalk
nex
combo
##amb
##amed
convers
convin
##ands
##usion
manage
struct
drag
acting
slots
designs
installing
connecting
elimin
indust
carefully
companies
format
fabulous
operation
suitable
slowly
entertaining
delicate
dining
sealed
hyd
wipe
accidentally
selection
stupid
bb
lag
mp
##rs
##house
##ores
##lly
brows
stones
sea
##eless
willing
recent
muff
purple
blast
knee
introd
pole
instantly
hero
colorful
slot
thru
downside
opener
esc
walls
contrast
portion
delivers
config
stops
labels
nuts
loaded
square
bolt
grinder
document
boost
razor
laser
appropriate
eur
hide
hub
hung
jour
mesh
pic
pun
##rical
##12
theater
##oud
beef
stool
seeds
neither
meets
##inder
##ummy
arch
clothing
knives
managed
cleans
cleaned
roomy
receiving
musc
adjusted
mainly
customers
stayed
thinner
regularly
numerous
yester
assum
treatment
specif
respond
causing
lemon
1080p
bank
cage
dsl
daughters
fitted
hp
jud
rope
san
tan
upper
wild
##uits
##70
##ored
##ators
toe
##rets
##ena
##anger
##omb
##ici
hall
beans
asking
shorter
enh
unus
exper
##inks
rose
cardboard
dealing
impression
microw
constant
conditions
wooden
allowing
##pected
dollar
conditioner
##dden
leaking
yeah
techni
miles
closet
sleeve
initial
jacket
candy
softer
entertainment
yesterday
55
cere
ie
ive
nyl
nicer
psy
wider
##aver
##lies
station
comic
##iles
##iment
produce
fear
tivo
goal
carried
cru
acid
acne
peace
surf
protectors
wonderf
indoor
telling
relations
performs
visit
confident
importantly
zippered
folds
promised
suggested
sending
assembled
becoming
therm
pencils
shaped
achie
outfit
flavors
cotton
harsh
lan
mower
tubes
wired
##uable
##oons
##cul
##pad
thumb
##uted
##ett
beware
##oofer
stage
proce
seed
excess
del
sudden
##aker
##ortun
unpl
flag
rober
tries
colour
sounded
bitter
screens
secret
interface
enjoys
couch
speaking
extract
tablets
picking
genu
loop
padded
transport
comparison
birds
commer
continu
entirely
securely
convenience
firmware
occasionally
routine
emergency
breath
environment
stunning
000
28
4k
cre
fal
ii
jam
kitty
oven
rare
##mark
##ule
##ses
##iers
##gon
##ai
##fast
##zy
##atives
##iter
##ashing
##verse
fro
##une
anybody
express
overnight
puts
battle
appet
reset
surely
factor
bargain
term
drawers
burning
luckily
events
nutr
towels
opportun
susp
guests
struggle
internal
vendor
shirts
thoroughly
specifically
psych
wonderfully
genuine
26
360
ast
dash
hid
##gb
##ees
##ract
##ture
##hold
##f8
##oust
##edy
##alog
shave
shots
##illy
greatest
deb
justice
bubble
##using
leaf
mud
##umps
clim
flor
roast
roller
opens
trim
news
##icted
##mod
pepper
gameplay
protein
hopes
connector
reduce
starter
versions
switched
locking
behav
humid
brushes
treats
burned
supplements
tuner
released
walmart
links
activities
teacher
animal
shocked
scanner
barking
forgot
bible
baking
den
dav
dull
hats
pa
tail
vill
xl
##ived
##rors
##oot
##ka
##kward
toner
libr
shades
##thetic
align
subs
##apters
outer
unh
##osite
poly
sizing
carbon
awkward
phil
serve
##angu
rooms
amazingly
##bell
##gged
breakfast
discuss
screwdri
choices
elsewhere
150
exciting
bird
holster
passed
calories
authent
lining
tends
pleasant
outdoors
increase
logo
fighting
degrees
ceiling
squeeze
significant
olive
platform
dslr
cult
dp
duff
fasc
gig
ign
kay
pear
pist
##gger
##pan
##piece
##40
##ara
##omic
rev
pred
##tering
ank
shed
shine
##illing
##outs
busy
abuse
truth
hadn
nois
doesnt
needing
floors
grain
granted
strateg
##intend
##acle
newer
tvs
disappear
breast
tasting
arrive
broad
discs
refres
plane
checking
attachment
updated
depart
calcul
rolling
leaks
##bby
lucky
liner
dinosa
hesitate
torque
blanket
communic
welding
involved
destro
ultra
grocery
europe
nylon
ax
bt
ded
mc
male
nintend
pal
##uitive
##ios
itch
inner
stom
stead
stains
hey
lover
ali
##elie
##ieved
bug
buff
span
unc
##umbs
sciss
scene
disney
grown
handling
cheese
diff
trigger
helmet
finds
realistic
drivers
brew
capability
greasy
dvr
mountain
student
difficulty
potty
hearing
typically
growth
layer
laund
firmly
dimensions
recipe
encour
consistent
smoke
street
lawn
japanese
fortunately
toddler
microwave
authentic
fishing
hing
jar
rap
tale
##gly
##hy
##100
tops
towards
rein
hammer
bean
ster
priv
##iders
wasted
sewing
ord
##amm
##amin
dem
dece
usable
users
qual
##unction
##ops
adapt
unw
everybody
backup
##roll
gray
##ache
intuitive
slides
wrote
cutter
exceeded
joke
sky
skill
connections
kindle
videoid
##gging
picky
complaining
describe
relief
bulk
##mbers
performed
sharpener
magaz
##encies
##inyl
projects
monitors
boards
riding
##coming
occasional
workouts
harness
activity
diameter
situations
swimming
capsules
lady
enemy
components
universal
unbelie
dangerous
appetite
nintendo
laundry
aim
cous
fool
hilar
latch
vinyl
wiring
##sing
##gy
##egr
##ral
##cue
##po
##bl
##ester
##ingly
inse
brit
stove
stabil
washer
wel
soph
analog
shame
##agement
depress
frank
sucks
quant
bum
bull
production
spect
adm
flies
rocks
vegg
intell
ages
saver
actors
guard
storing
##others
solved
tasted
experiences
basement
chargers
drying
appeared
creating
sunlight
potato
organizer
humor
2012
specs
antic
dishes
dispens
split
towel
accommod
medic
vitamins
automatic
sexy
capture
potential
maximum
width
refreshing
department
21
29
gain
gate
lux
langu
oct
pitch
wes
##cam
##lb
##500
##xic
##nda
##ural
##ado
shred
seam
##rie
##ils
spar
lean
enth
##soever
whatsoever
##izes
##ums
score
##ensity
teas
lotion
##acious
##ploy
herself
makeup
gloss
sliding
pee
serves
stored
ending
wherever
earth
attack
capable
sticker
thickness
located
insight
matching
120
beginner
beginners
sooner
understanding
flashc
combined
desktop
trend
##ribly
illustr
resistance
hesitant
neighbors
slippers
primarily
promptly
latest
objects
magnetic
false
stomach
anticip
36
cy
cycle
gem
ht
lb
ren
ss
sate
##ius
##ients
##rup
##yard
thumbs
##inary
fore
myster
##allow
##urch
doors
placing
fran
fraction
ampl
amps
somewhere
expert
fitness
strain
##ometer
glitch
jobs
skip
owners
sons
dried
household
tasty
systems
sticking
##lloween
painted
scrub
computers
subw
touching
sweep
messy
signs
profile
missed
dropping
smartphone
occasions
frequency
frustration
spoon
approx
suspect
pinch
survive
electronic
degree
exceptional
fragile
bracket
acceptable
adhes
fauc
42
400
cuff
croc
econ
hitch
lu
pushing
raw
##ials
##nel
##tv
##hs
##lbs
##eram
##onnect
##lex
inj
reve
beard
beats
soda
anx
exchange
member
quit
upright
##ively
##uses
leash
exposed
recommendation
clipp
##aves
disk
manner
carr
ours
acoust
glut
##ugs
nights
waited
musical
adjusting
##odes
breaker
##ugging
reduced
b000
tightly
painting
distort
patio
temp
polar
ergon
measuring
wrists
strips
profession
artic
graphic
spoil
fingerpr
macbook
##screen
accompl
utf8
regardless
chemicals
enemies
pipe
structure
bbq
achieve
opportunity
library
fascin
noisy
destroy
scissors
accommodate
48
aid
cu
eq
ether
hated
ken
nurs
pand
pix
sess
tuck
ugly
vent
virt
##mond
##manship
##iving
##vy
##rance
##tles
##bal
##zing
##atory
tote
##itary
##onic
##iser
##isters
reb
repr
halloween
beam
whist
##ida
lived
shift
shield
vertical
chapter
##uster
summ
##ulate
produces
bund
mos
spa
nozzle
une
scoop
overl
buyer
club
clamp
offic
flap
backs
manually
##aches
popped
trimm
##ques
badly
syrup
lessons
adjustments
providing
smelled
painful
supports
dryer
satisfying
switching
concent
mario
visual
generic
continues
healthier
polished
progress
tune
buckle
##aaaa
dialog
misle
inputs
weighs
repeated
sync
soooo
utility
physical
housing
prepare
deserves
mp3
pistol
satell
ethernet
bin
ca
cow
ceram
dent
eps
gb
gps
jes
mr
mort
nerv
ox
pac
rice
roof
tires
ya
##yr
##yle
##cl
##wich
##parent
##bow
##bud
##ki
##77
##oms
##stick
##station
asso
seams
dozen
##asty
produced
unex
##abet
clut
prem
boat
desired
monster
thrown
headlight
skills
diapers
connectors
freeze
elements
ideas
comparing
garlic
electrical
recorded
rolled
naturally
notebook
effectively
sales
prints
balanced
bracelets
illumin
pleasure
faith
shutter
tricky
encoun
accompan
fiber
##namon
regarding
violin
cinnamon
fuzz
spirit
wrinkles
adventure
delighted
gallon
ultimate
relationship
david
unhappy
steady
hilarious
language
subwoofer
gluten
ceramic
nervous
associ
bio
core
eight
fade
facing
faded
mer
mood
os
ot
papers
rides
sore
south
tick
##ode
##ault
##kn
##erve
##inse
##enger
##anut
reality
bridge
static
worries
chart
chip
heater
comedy
greatly
##apher
trap
troub
##usi
mug
evenly
flick
purchases
pointed
##place
##eria
phen
dram
peanut
contents
swive
underw
##aws
##ushed
register
remains
sturd
nightm
##ggy
##whel
collaps
paired
airport
favorites
scrap
pulls
subtle
sched
scratching
horiz
typing
drawback
angles
##ucing
error
compliment
closer
vibration
lacking
periods
wipes
essentially
applications
pouches
developed
documents
decoration
challenging
reminds
diamonds
compressor
responsive
episodes
disposable
convinced
hidden
screwdriver
western
enthusi
cel
cube
crew
hence
hits
jan
oily
rugged
tax
vest
ware
york
##mc
##ih
##iber
##vc
##obs
##here
##fr
##power
##zel
##ora
##arter
forth
ham
##alian
noted
social
liking
analy
semi
fruits
workmanship
members
coating
outs
##ifying
spaces
##unt
tile
##ola
overpr
aftern
pref
pregn
backing
sett
grate
integr
happening
resour
daylight
thoughts
skirt
owner
extensive
remain
wonders
cooling
corn
valuable
satur
determ
curious
relig
matched
accessory
assume
continued
louder
polish
2015
seasons
pushed
laying
tuning
shelves
causes
cabinets
moisture
fashionable
massive
primary
consumer
cinem
hunting
identical
significantly
substant
component
eggs
precise
gradu
bench
ounce
murder
ensure
behavior
subscri
unexpected
horizont
95
aes
bare
eb
lic
mice
map
pil
silly
tin
torn
tension
vine
vary
wound
wave
##nch
##lin
##pir
##bag
##ker
##ito
##omfort
reaction
##stairs
storm
stability
##ada
proven
heating
comcast
greater
demon
fee
##user
lever
afric
unne
##umes
scope
##osure
overwhel
math
sounding
soundbar
crank
reads
shoulders
supplied
##ashes
diag
hairs
extras
meter
modes
valve
discomfort
complained
refill
optim
b004
detach
related
staying
presents
sprink
subm
leds
panels
transmit
1000
mixing
depot
confidence
positions
distrib
folding
patient
patience
combat
leaked
menus
evil
leads
separately
motherboard
sandwich
harry
tags
flawlessly
tabs
tables
successful
absorbs
narr
survived
massage
raised
upset
reference
madd
##porary
shrink
kettle
holiday
appealing
techniques
btw
anxiety
repres
uneven
nightmare
categ
dl
fer
fount
lacks
ms
nasty
pets
row
ram
tack
##uary
##gun
##rass
##oz
##ties
##corn
##word
##fo
##ped
##bes
##born
##ko
##att
##isc
##oted
##otic
##ette
##sters
youth
##urt
chic
cans
##ilities
##ulated
cosm
outlets
##unky
##usive
##gend
unre
nowhere
intri
hobby
##plays
thinks
worthless
##grapher
belong
coverage
earbud
##tenance
famil
stuffed
stickers
shorts
disconnect
calling
maintenance
director
hotel
pressed
pressing
transl
singing
volt
begins
cookies
generation
organization
army
pillows
cloths
rolls
motiv
sellers
poles
programs
2000
informative
accuracy
military
liners
walks
frustrated
investig
feedback
jeep
increased
consistency
medical
crafts
competit
magnets
estim
public
porch
brackets
vegetables
senn
nexus
conversation
configur
suddenly
frozen
nutrition
insect
mosqu
misleading
epson
unnecess
85
ath
bite
dc
dough
fif
faces
hul
jul
lined
mich
nipp
names
pit
rasp
rinse
tact
tour
vint
##gue
##ray
##yal
##off
##tes
##cin
##hz
theat
##reh
beads
stan
##ura
ash
sections
dock
chat
champ
##riger
exter
alright
##ague
pliers
suits
goodness
##antic
convert
spong
spacious
ties
##amel
recover
legend
unt
unlock
scot
scuff
seth
knobs
displays
highlight
twin
aging
aggr
pod
playstation
desire
safer
whose
matte
respect
specially
##pted
decades
miner
incor
incon
supplies
receip
reception
served
##beat
snaps
##ggings
letting
skinny
embar
edition
basis
element
curve
hdtv
confused
grips
distract
locked
sells
marketing
blender
golden
equal
199
programming
sleeves
feeding
teaching
circum
buddy
taller
twists
titan
measurements
navy
teething
histor
slipping
threads
repeat
concepts
synthetic
staples
scared
recognize
sparkle
tomato
ghost
scalp
muscle
unplug
veggies
flashcards
adhesive
econom
satellite
overpriced
fountain
sennhe
23
250
bib
caut
damp
golf
jer
jell
killed
lap
laid
mas
pest
vet
##iy
##gia
##aven
##pa
##ba
##15
toler
react
brist
##str
beer
butt
anch
sees
##ppers
chapters
church
heck
exec
allen
plas
amb
upside
##imm
##opter
leggings
timely
needless
##osp
smile
blind
dise
mane
twe
poke
batch
crate
reviewed
foil
designer
lesson
returns
remotes
##ggles
famous
gamer
dealt
letter
airpl
removal
edit
refriger
tightened
planned
directed
insane
switches
amounts
mixer
safely
guitars
practically
pops
popcorn
angry
deeper
presented
presentation
preferred
multiplay
fails
posted
launch
imagined
trees
throwing
miracle
guns
labeled
encl
flaws
melted
ruined
staple
shapes
talked
inspired
##abilities
hundreds
educational
neighborhood
photography
emotional
innov
darn
industry
journey
##market
florida
mystery
acoustic
afternoon
unnecessary
hulu
inconven
multiplayer
aqu
dance
fav
gop
gather
hers
jet
lamps
ny
pul
pant
pian
sr
sag
xb
##made
##gage
##down
##pass
##75
theme
##ancy
##omen
ford
forced
##alena
wasting
lie
##theless
##usting
##agger
plush
fridge
##ulf
upload
upcoming
##eles
trade
trunk
##oph
watts
expans
##epend
smud
overs
aroma
flower
fluff
backyard
blown
bold
knob
gran
intensity
longev
clever
holders
secured
nevertheless
skull
complicated
connects
drip
modem
independ
perman
listened
planet
mounts
washable
sharpness
creates
marin
woods
gripe
digest
hangs
horse
photographer
promise
polit
casio
authors
burner
explan
failure
errors
110
upgraded
bored
borrow
earring
sprayed
tracking
increasing
tears
winner
beside
violence
trailer
critical
sofa
fuel
fragrance
vanilla
##craft
allergies
episode
weapon
unfold
citiz
wobb
unbelievable
quantity
intellig
bundle
maddalena
earbuds
raspberry
vintage
stanley
exterior
embarrass
piano
longevity
600
720
ba
dub
eats
eco
hitting
mall
pics
rib
vhs
wd
##nis
##rest
##cut
##cakes
##hol
##list
thous
##nday
##rel
##rete
##isher
##isions
##omin
##ica
##utor
rebo
shines
##thy
proved
dose
##ooked
##rial
alive
alert
almond
cancer
##ago
debr
ate
frost
meals
amate
buds
buzz
spout
spills
##ander
anytime
recorder
scri
overly
clo
offering
prev
flush
flats
backlight
boom
handled
happily
resid
lastly
pegs
headband
contem
swallow
definition
joints
quicker
weights
effici
snapped
facts
styles
##atchet
waff
##while
letters
pairing
lowest
steep
grew
locally
functioning
classes
certified
former
attachments
conclus
machines
confir
damn
fills
horror
flavored
humans
occur
operating
advise
bleed
closing
closure
trek
tremend
containers
walked
frequent
sandals
rounded
instruments
suffer
blocks
development
bending
craftsm
peeling
existing
obsessed
belly
international
moisturizer
gadgets
ultimately
facial
dynam
weapons
eliminate
experiment
cruise
culture
dedicated
welcome
dispenser
faucet
ergonomic
jesus
swivel
substantial
sponge
maneu
xbmc
1c
aaa
ber
dil
dump
hip
kits
lazy
nap
ore
ply
puff
pizz
rush
ven
wi
zone
##vas
##via
##ho
##hh
##ael
##pg
##pting
##bro
##esy
rely
brake
stem
stamp
##cher
##iration
cherry
##usted
heel
cance
delay
quarter
##aste
spice
##unate
nope
recieved
compreh
##soft
unpack
overhead
arc
everytime
precious
##azz
bose
management
sheer
sheath
grav
host
honda
carries
craw
cracks
crunch
glare
thrill
default
expectation
guid
writer
##cials
cheapest
secrets
joint
worthy
finishing
covering
earphones
warned
severe
snacks
wondering
arrives
indoors
stevia
grease
supporting
fallen
inser
consideration
reput
reports
subt
transform
comparable
thankfully
invict
grandma
garcin
entry
mids
##anna
passion
headsets
savings
occup
combine
pumpkin
worrying
##brush
explore
born
selfie
catching
jumping
lids
bucket
applying
majority
stretched
flexibility
minimum
america
microphones
therap
killer
slippery
rotate
##shield
blends
utens
attempts
johnny
lumens
services
ounces
river
browser
surfaces
proceeded
roberts
ankle
dinosaurs
rapid
sophistic
glossy
amplifier
approximately
fuzzy
troubles
settled
estimated
receipt
plasma
airplane
amateur
craftsmanship
garcinia
1b
65
bind
cro
dot
ec
fed
lite
mary
masc
ow
ris
rim
rash
rca
ratchet
s5
tread
tutor
##iven
##do
##18
##76
##inger
##itude
##eness
##ared
##leep
##utions
reel
reorder
hal
stink
stations
##kel
asleep
shad
prol
seik
cham
chili
exha
que
coin
coated
coax
goods
##omend
##aint
##ersome
easiest
recomend
goggles
arts
##aved
settle
bod
bob
knees
gotta
disg
groo
intense
instance
crappy
crushed
partner
##ptions
scream
monthly
swiss
giant
pleasing
sym
solve
beds
infant
career
##presso
employ
steak
companion
travelling
terribly
screwed
customize
satisfaction
washes
packages
marker
marked
closely
sharpen
cordless
formal
updates
concert
march
##encing
vari
travels
warmer
collecting
##pective
suggestion
police
2011
speeds
psp
explor
##aneously
layers
cellul
pupp
vibr
squir
moderate
circle
appreciated
grinding
sufficient
opposite
requirements
##graphy
flowers
raise
neatly
vehicles
outfits
spiral
precision
tangled
holidays
chalkboard
escape
cousin
potatoes
glitches
reveal
virtually
official
otter
overwhelming
families
mosquito
maneuver
invicta
38
64
aux
boss
cyc
dies
dumb
fid
gab
ko
ment
mile
mcc
mah
nick
named
pier
pork
rc
rum
tad
uv
vict
##ians
##ivers
##nal
##vp
##oke
##dge
##fol
##field
##14
##89
##zes
##95
##25
##ini
##orrow
##aries
##oto
##ota
ons
##ety
brisk
brothers
bee
beep
##alu
stood
withstand
##ids
##urb
seg
chains
heaven
##ril
alb
##agon
dew
queen
coco
##aky
##anda
timex
##actory
##izers
unst
##umber
scroll
recommending
afterwards
blower
highs
intact
twenty
tex
popping
handed
##aco
helic
glued
reviewing
parties
##reek
##pleas
decre
retrie
underst
belts
remark
remaining
metall
##ontin
discol
b001
listing
windshield
locations
repet
audience
obst
married
laptops
confusing
fourth
armor
wheat
horn
folder
calib
powers
treated
preference
researched
evalu
loading
closes
vita
stocking
tricks
candle
opposed
downloaded
killing
peeler
teenager
motorc
indicator
ruin
booster
undone
identify
lifest
sooo
statement
community
ridiculously
selected
methods
sequel
float
princess
navigate
banana
german
hungry
thermometer
lantern
duffel
private
medicine
fascinating
sessions
summary
##known
vinegar
africa
insects
debris
pizza
cellulite
2x
39
austr
bay
bact
bones
cad
cig
cumb
dj
fulf
hosp
kr
lamin
nic
oce
pd
pale
rh
race
roles
ted
tint
teles
west
yummy
zomb
##mate
##miss
##gen
##gie
##ek
##rom
##yi
##creen
##drop
##watch
##function
##fiber
##pm
##paper
##bie
##32
##300
##inct
toast
topper
##itivity
##ician
forest
bran
brow
##alt
stairs
##verter
ants
shat
shaving
sewn
hex
comfor
canvas
##essive
frid
quad
quir
cock
##ela
moon
novice
unpleas
unknown
sci
scient
scann
overcome
buyers
arth
clou
bond
intend
phill
drug
drama
actor
crust
crick
crane
slicer
camper
foll
simult
mins
endless
accent
interfer
protecting
##away
softbox
connectivity
dries
perspective
personality
complements
united
discontin
barbe
childhood
percent
april
figures
transparent
margin
guessing
sites
visually
organize
signals
assort
freed
operated
accurately
seasoning
salad
##code
rubberized
manufactured
measured
evol
bringing
imagination
loads
reached
dimmer
annoyed
treble
assembling
contained
grilling
copies
activated
flawless
crying
chewing
tower
consistently
fiance
suffering
tennis
groups
north
sources
alarms
decorative
inflamm
cele
reported
##1111
publish
spinning
concerns
reflective
explained
loosen
printers
bounce
industrial
hubby
unusable
commercials
itchy
reinfor
sterling
##point
accomplish
pandora
whistle
phenomen
transmitter
configuration
sophisticated
metallic
bacteria
telesc
scanners
4g
46
47
az
aug
bic
binder
cave
dive
dots
ell
fiction
fyi
gap
hanger
jacks
kara
lake
lately
luc
mm
nu
ni
nood
omg
pace
rent
rif
rab
rays
ts
tumb
wings
wolf
yo
##mah
##ua
##sis
##iate
##gers
##vant
##rus
##oll
##care
##hop
##lor
##pc
##backs
##zard
##ja
theory
##inn
italian
toxic
##ita
##iters
##asin
##asse
##oman
retract
reverse
brass
beating
##irl
sel
seals
##ille
chuck
hemp
neut
lovers
frames
trays
traff
anyways
noises
compass
unsc
needle
scary
overpower
clients
backdrop
lightly
twins
playback
holy
matters
##plic
feelings
monop
crow
cray
makers
glitter
readers
rescue
addict
headl
headache
hardwood
sword
##iously
retain
retro
ski
symb
heavily
regards
regrets
snor
completed
capabilities
##ogs
removes
complains
tightening
supported
sharing
curved
smoothie
inspect
prescri
considerably
handsome
sharpening
thankful
medioc
labor
sensitivity
footage
opera
burnt
explains
blew
technical
equival
layout
evidence
voc
memories
manufacturing
trusted
choosing
mechanic
mechanical
candles
timing
melt
survival
rotating
competitive
threaded
teenage
microfiber
relaxing
molds
martin
patterns
crystals
##affe
drums
romantic
aspects
soul
unsure
vegetable
allergic
solely
fluid
rigid
unusual
##etti
commercial
continuously
suspense
forgotten
polyester
pearl
broadcast
demand
magazine
frankly
anticipated
destroyed
equally
pixels
repeatedly
resource
ebay
pilot
chicago
michael
gopro
expansion
720p
residue
contemporary
conclusion
tremendous
dynamic
subtit
##iveness
prolong
ocean
friday
celebr
karaoke
traffic
symbol
mediocre
800
apr
cfl
dyl
ft
groom
hom
july
james
kong
lint
lord
laces
mow
mush
ott
poo
ry
sorts
tu
tl
til
tsa
vir
##hd
toes
##itation
##itement
##icity
onions
rect
haw
habit
brick
beast
##alous
whoop
stir
proud
soy
sod
lime
lips
shep
shakes
veriz
seven
chipped
heats
exagger
alto
dell
dear
##ilty
suited
##apo
outl
upsc
##ifting
produc
##akers
feather
recall
##usable
yours
##icky
##ears
clin
##aze
knot
grace
intention
triple
actress
slips
partially
guides
farm
##apper
skate
interact
diabet
kidding
homemade
espresso
attend
replacements
blackberry
clearer
placement
arrival
wished
reduces
tests
b00h
curtain
termin
reluct
darkness
markers
pasta
attaches
excitement
concrete
bikes
cooked
cookie
messenger
warmth
assign
advertis
cartoon
passport
calm
promot
annivers
dolls
informed
era
mornings
memor
reaching
cells
hurting
puzz
linkcode
teachers
scanning
dancing
tearing
suffered
fashioned
influ
cushions
laughing
attempted
unders
consuming
critic
creativeasin
sucked
romance
substit
recognized
tomorrow
servos
briefcase
houses
robust
crime
arrang
million
simplicity
codes
punct
assumed
cereal
orders
british
ssd
clippers
carrots
premise
associated
dramatic
schedule
horizontal
cosmetic
incorrect
circumst
historical
bristles
favour
ribbon
helicopter
unpleasant
follows
equivalent
verizon
anniversary
5mm
aunt
bid
bone
bamb
cough
dw
dund
ez
east
fest
gust
gang
mere
mitt
oak
sisters
tiles
vivid
yards
##mable
##uk
##suit
##iator
##nat
##va
##rage
##yn
##overs
##tail
##tains
##cake
##hel
##aur
##fly
##fall
##fare
##45
##38
##iner
##oul
##itable
##otics
infer
inqu
reward
reeds
hack
haul
bezel
##che
soil
soothing
canop
canister
ornam
##amine
coats
##eline
spill
easter
lee
compell
somebody
goals
##actor
##aby
##abled
scam
cloud
flour
flashing
flops
gross
impr
teens
handbag
cheesy
cares
##acular
trib
appli
drilled
mono
glance
slower
seemingly
downs
spell
guilty
addicted
headaches
##cient
##cium
minus
shoots
surger
worthwhile
sonic
interm
##iolet
earl
warn
attacks
sne
costly
slept
##odile
smelling
editing
elev
b005
genre
curly
eyel
winds
mickey
touches
volumes
balloons
restr
command
cookbook
accessible
builds
silent
properties
digit
advertising
flattering
morgan
calcium
sensors
suggestions
centered
bush
drove
displayed
measures
leading
artific
196
lincol
negatives
manufacturers
focusing
frequencies
jumped
bowls
activate
spoke
circles
circuit
depends
ingredient
outputs
quieter
bathrooms
electricity
bothered
commented
epic
taped
trucks
rule
stapler
observ
lifes
wiggle
toddlers
##world
tossed
strawberry
simpler
bluray
##llywood
browsing
ceremon
robert
paul
philips
predict
calculator
communication
european
palm
magazines
bumper
franch
crocodile
tucked
dialogue
binoc
analysis
demonst
represent
category
competitors
seiko
brisket
motorcycle
lifestyle
discontinued
phenomenal
dylan
whoopie
bamboo
dundee
lincoln
3x
33
390
4x
700
alex
cf
caffe
ds
dd
dun
dread
dying
fence
fuss
gee
gask
htc
iced
iii
jim
kle
maps
oly
pir
pig
pile
pumps
ros
s4
taught
##mother
##rx
##rain
##oe
##c2
##aign
##ders
##pro
##bu
##bits
##kov
##72
toward
##itz
##rels
fork
reusable
havent
haha
brushing
##oooo
whim
stub
pricing
##urig
##urance
##adem
soci
ships
prove
sew
dos
alt
##ieces
bummer
##aud
spy
traps
tracks
##unks
##opes
recyc
engr
envel
##itech
composite
expense
##istry
scare
##ava
flood
bless
blame
blues
fitbit
manip
robe
keurig
teasp
sacri
hollow
baggage
caramel
dra
newborn
keeper
acce
acqu
slick
booklet
reson
defense
prett
foundation
surge
replay
sonos
solo
warfare
elbow
snag
gamers
##ucks
infin
pickup
steve
refills
basics
b009
b002
deter
tights
tighter
versus
satisfactory
washers
paste
audi
studs
updating
excuse
commit
##ifications
healing
rubbing
damaging
organizing
fixture
distur
loses
collector
driveway
policy
pumping
yeast
campaign
engaging
straightfor
backpacks
stripped
posts
##iiii
examples
creamy
illum
separated
recipient
grounds
feeder
animation
mistakes
strobe
twisted
novels
novelty
smoother
smoking
thermost
crafted
roughly
magnific
preparation
ladder
struggling
sweaty
controlled
martins
blowing
gradually
adventures
education
toothbrush
university
turtle
george
irritating
randomly
ribs
patches
documentary
enhance
continuous
creep
roasted
humidity
ignore
alien
december
spectacular
illustrations
professionally
cuis
nursing
trimming
underwear
sturdier
celest
prefers
integrated
cinema
license
voltage
aggressive
sennheiser
disease
inconvenient
fluffy
independent
script
prevents
tutorial
otterbox
cumbersome
hospital
comforter
arthrit
crickets
barbecue
neutral
headlamp
sodium
altogether
circumstances
canopy
franchise
caffeine
envelope
straightforward
49
5s
750
aer
cale
dice
dud
eld
fond
foss
faint
gors
ike
jars
jaw
jerry
kiss
kills
lace
lave
mint
mvp
pi
pb
pim
pans
rins
russ
sip
sided
tore
wing
wides
xmas
ze
##uh
##uah
##ien
##iently
##nut
##giving
##eer
##tures
##hi
##hips
##fty
##laim
##bor
##74
##35
##inet
##atter
##atures
##asm
##ares
##arse
##arian
island
##otin
##etics
bron
brim
stale
stumb
##chool
prong
##idently
shaver
proced
vert
chih
##riage
deod
plugging
##ila
meg
quart
cole
coarse
upstairs
##imen
##iform
conv
conj
##ership
##aken
spider
spins
##andy
nobody
lend
enable
uniform
scoot
##osing
argan
clunky
perfection
disasse
roy
aged
desper
desert
matt
herbs
batman
academ
gluc
sometime
##avel
camc
cambo
differences
suppress
shovel
receivers
diana
attic
capo
freezer
adjusts
deals
stuffs
reducing
barn
steering
genius
planes
smoothies
classroom
springs
12v
performances
touched
solidly
sunscreen
studies
obtain
sleeps
christian
biking
drinker
confusion
messed
fixing
silky
walker
property
password
folders
records
##aha
century
freak
2007
unfortunate
dresser
dresses
supposedly
advised
bleach
processed
solder
##ological
upgrading
improvements
180
mailbox
hike
faulty
furnace
drilling
logitech
successfully
flashlights
existence
tapes
answers
meeting
magnification
silicon
indicated
microsoft
snugly
ladies
exceptionally
trainer
yogurt
bells
nephews
lifting
compression
references
hello
guaranteed
soup
gallons
limitations
malfunction
array
samples
rails
emotion
navigation
crashes
citrus
bumped
assistance
introduced
journal
assuming
kayak
disappeared
dinosaur
hinge
depression
fingerprint
fingerprints
encountered
merch
enthusiast
warehouse
sandwiches
translation
athlet
caution
jelly
permanent
embarrassed
thousands
thriller
disgusting
sympt
dewalt
remarkable
repetitive
phillips
simultaneously
freedom
bicycle
rifle
overpowering
apron
surgery
olymp
society
drawn
ikea
lavender
chihuah
deodor
4th
52
8x
bake
bills
cass
civ
creme
eag
eject
fri
fos
fps
fund
fuse
gimm
hill
hiding
icon
jug
kod
lame
lows
lumin
mig
mate
mics
nine
ome
pause
pvc
rf
rag
tig
tum
wil
wanna
xs
yield
##mes
##uality
##ville
##rum
##ros
##resh
##yer
##of
##ograph
##cases
##hkov
##fire
##lines
##16
##zers
threat
thirty
##ern
##atisf
##escent
##lle
##ario
##ani
##ania
isol
##otch
inev
##ico
##uting
##vet
forces
reapp
revers
hazard
##etch
##seat
##ooper
whisk
staff
##child
prone
wasnt
as2
ancient
shall
alas
canned
##agr
##agues
demo
plun
fray
friction
workers
##uled
##ulus
##ulars
##ulating
##apse
coach
##ainty
##elve
buggy
##ements
spicy
trapped
##ige
compens
adore
needles
##istics
##osition
flows
##ender
disaster
##iptical
rods
grid
##achel
agre
smallest
handhe
hollywood
##assy
actions
cros
defl
fewer
wraps
fox
contrib
##teen
##angular
topics
finan
interf
##ashed
conscious
weighted
coupl
secondary
##ggle
collapse
##rene
stuffing
corru
experiencing
reduction
refused
refurb
refresh
avid
believes
facebook
windy
instructor
locate
additionally
attaching
exclus
traveler
mixes
visiting
generator
messages
networ
fixtures
distinct
irration
possess
calip
honor
recordings
patients
immers
sentence
brushed
samson
treatments
psi
flooring
stopping
eras
tones
manufacture
eaten
researching
artist
reaches
198
annoyance
tuned
petite
fireplace
vibrate
benefic
jealous
necessarily
shocking
macro
##heads
circular
dependable
rainy
approved
wiped
kickstand
trading
measurement
securing
blocking
butterfly
1789
hesitation
competition
knocked
emailed
individuals
laughed
streaks
specifications
oddly
welder
flights
responsible
shells
duplic
dividers
requested
assistant
muscles
judg
enhanced
experim
aston
muddy
climb
pearls
revol
strategy
diffuser
ordinary
qualities
unwanted
cymb
luke
distortion
nursery
oxo
pacifier
january
pregnant
pregnancy
aesth
diagn
recovery
titanium
pokemon
refrigerator
explanation
intelligent
reboot
efficiently
comprehensive
reputation
##957
elliptical
unscrew
prolonged
diabetes
advertisement
favourite
inferior
390957
fossil
gorshkov
chihuahua
handheld
02
7d
dang
dys
domin
dainty
gt
gor
gum
gro
hr
iv
jen
jun
jig
kl
kart
kud
lying
ml
mes
oat
poop
rv
rive
rac
rental
sed
sig
tas
tug
vast
veter
ward
wool
waking
wob
##nish
##eme
##eem
##rating
##afe
##wall
##ford
##finder
##log
##boy
##buster
##kt
##39
##33
thir
thigh
##inent
italy
##ede
##eding
##lled
##rett
##isers
##eng
##ano
invent
reject
##eth
##etically
##ston
myst
##oops
whit
stim
stinks
##cho
pra
##urd
##urus
##mel
liver
asus
anime
shin
shout
sept
chan
chord
chasing
chunk
loyal
orch
##agers
##ament
degr
plans
france
sue
sunday
coast
coord
cozy
##imeter
conse
conce
mop
tied
##oping
reccome
entr
adapters
whats
mugs
exposure
##istent
##osen
##osph
arg
clay
offs
bling
booth
boiling
disks
manages
grows
grams
graco
##ouses
imple
twelve
poster
##acles
##track
##trusive
trial
bathing
battles
phase
newly
coloring
charco
charms
sling
resort
funnel
wrest
decisions
join
cleaners
##angle
owns
topic
interchange
belkin
diy
homework
earn
featuring
efforts
region
regul
regimen
##well
fasten
absurd
speaks
nightstand
pointless
##ogen
infr
infuser
surprises
##ibble
shortly
portray
sata
refle
describes
storyline
deterg
detox
traveled
leatherman
filming
president
nearby
reprod
performing
studying
forms
formed
fairy
scheme
legit
marriage
inval
restart
commands
biotin
importance
seattle
bookshel
calor
missions
standards
detailing
practices
central
leakage
advance
##cohol
necklaces
##ceptable
strike
striking
voila
leader
closest
border
130
dimin
youngest
cellphone
exercising
spraying
sandal
lacked
spoons
necessity
stretchy
stretching
repaired
teleph
shops
dietary
logic
essentials
wedge
gears
clicks
gardening
odors
odds
doctors
inflated
indication
indicates
struggled
reminder
relaxed
engineer
bloody
inserted
blankets
status
accounts
vanity
lumen
wrinkle
wrinkled
tubing
selections
glowing
ketones
mike
disposal
conversations
muffins
technique
excessive
nutritional
duffle
shedding
uncle
encourage
hinges
skype
bumps
spectrum
luxur
foreign
article
spoilers
concentration
##aaaaaaaa
headlights
spiritual
determine
subscription
narrative
nipple
minerals
distracting
insanely
innovative
wobbly
clogged
plywood
crunchy
owl
chamber
squirrels
cocoa
retrieve
pdf
zombies
##mission
assortment
august
subtitles
homes
ottoman
skateboard
puzzles
substitute
artificial
thermostat
magnificent
widescreen
cambogia
beneficial
kudos
wobble
reccomend
charcoal
220
31
a7
cp
cents
der
dorm
dents
dense
et
eth
eager
faced
hates
jose
jib
kir
lp
lun
ma
mothers
ns
native
pak
piv
pots
pony
roo
rang
racks
racing
rules
vamp
woo
waves
zild
##mill
##under
##iver
##iantly
##iology
##gued
##rr
##rough
##ole
##dling
##02
##lain
##lite
##lings
##19
##55
##zu
##27
##jian
thie
##erable
##inc
##inations
##ori
##oration
iso
ish
inh
render
##sey
brittle
##lying
##stal
beige
##aling
whis
stol
pron
pray
pricy
##meal
weed
socc
soaked
asap
sher
shark
shaft
prope
dol
chlor
chosen
heated
##rim
##ria
##riel
exfol
alph
alcohol
##aming
delet
plumb
sug
##ulting
justify
outcome
outrage
congr
converter
feit
fellow
spart
nostal
##olin
enables
##erfect
comprom
##gee
adop
unz
unac
expiration
scor
overhe
purses
aftermarket
clamps
flipped
flipping
blaster
dism
manager
root
grills
##rylic
intric
couldnt
carb
##acula
##000
award
applies
dracula
monsters
seek
soundtrack
crad
acrylic
readings
reserv
partly
theirs
deflect
downstairs
peak
pretend
writers
headboard
swear
incom
joe
shocks
largest
##ediate
gifted
consume
imperial
imperfect
diab
diving
##uffle
lesser
enjoyment
wondered
##mma
complement
captain
freezes
metals
coolest
bedding
contract
modifications
emph
husbands
refuses
bases
optics
b00c
descriptions
curls
chris
relieved
classical
remotely
forming
magical
concl
marvel
grandmother
mommy
confl
gripping
fixes
improves
armband
continually
hangers
passing
horribly
mission
particip
practicing
promises
draws
controvers
2008
dawn
devil
burns
attracted
opinions
tongue
technically
immediate
processor
voices
textured
nutri
soldering
artwork
balm
tendency
remembered
walt
hurts
puzzle
moderately
ratings
spoiled
tougher
buckles
doubles
doubts
splash
repairs
chews
titles
240
##force
raising
shampoos
compatibility
stitched
preparing
utter
consumers
hunt
rusted
engineering
razors
landsc
entertained
publ
advantages
braided
dreams
fortune
involving
yrs
briefly
delightful
basketball
##osaurus
##guing
tangle
dissol
irritation
irritated
floating
scales
parking
urine
harmful
ratio
rattles
muffled
sanit
humidifier
communicate
skillet
shredded
htct
strainer
injury
professionals
caul
clutch
underwater
grateful
aesthetic
maple
detachable
submar
intrigued
theatre
ambient
granite
citizen
confirm
guidance
inserts
exhaust
cycling
gabriel
understood
tedious
shattered
published
noodles
tumbler
crayons
reluctant
criticism
tribulus
binoculars
cfls
arthritis
conjunction
camcorder
athletic
olympus
eagle
agreed
financial
oatmeal
entrance
implement
telephoto
luxurious
zildjian
stolen
soccer
deflector
3m
4s
5x
5th
ah
aper
apt
auction
bs
bc
bd
bf
biz
baked
ding
dong
ect
fm
fisher
gag
hen
jane
june
jumps
kin
merc
mental
nes
nur
nation
pas
pel
qc
tai
wand
wink
wars
yay
zen
##ml
##men
##uing
##iation
##ique
##nes
##nie
##gled
##vably
##viet
##ris
##yy
##ober
##taste
##car
##cure
##cip
##crew
##hoot
##fs
##fa
##full
##links
##bc
##bies
##bles
##bars
##36
##ndan
tosh
##itives
##oned
##icious
reven
brut
bruce
beverage
begun
##ald
##althy
whom
whirl
prison
##alled
##idents
##urp
weeds
soak
soles
soviet
asks
asian
props
chir
chill
heels
cane
##amination
deploy
plated
##ilation
meh
##uline
ample
##apot
copper
##ested
##aki
##aun
abilities
##andescent
tipped
nove
leap
envelop
##ittings
muse
mudd
unpr
##umn
##umsy
expose
explo
##osis
recomm
recommends
aftertaste
arn
clue
clipped
clumsy
##azer
flame
backwards
blad
blows
blizz
boiled
grout
grape
grasp
workshop
intim
twee
teapot
strand
poll
pointing
saf
firstly
chee
whoever
cargo
carseat
phy
acts
##ishment
crown
slr
slice
olds
peppers
daytime
##quer
writes
##pton
decal
swap
cutters
mina
incons
incandescent
excel
definately
jokes
jogging
surpass
server
owning
interp
interview
interru
diver
105
branded
esp
earned
attrib
featured
powering
supermarket
brewing
brendan
snugg
styro
styling
##atched
##mmy
wallets
cardio
freely
freezing
cork
indent
india
##iba
redness
hopeful
b007
##entional
supportive
shared
sharper
fanatic
impressions
delivering
chronic
believed
maintaining
directv
keypad
scrape
halfway
preserve
preschool
thanksgiving
certification
sweating
pancakes
sunny
transition
concise
invis
restaur
cooks
cooker
mixture
depicted
generations
messing
improving
assass
assured
50mm
passes
flavorful
mentioning
football
honesty
views
viewer
lengths
corrected
dressing
##brid
smartphones
engaged
futon
err
tonight
concerning
keyboards
dimming
treas
contacts
shelter
focused
reliability
rugs
crackle
temperatures
rounds
jean
mistaken
hybrid
claimed
increases
literature
telephone
fios
richard
sinks
challenges
elegance
attempting
existent
answered
magnifying
teenagers
carpets
stressed
capsule
violent
pedals
laughs
captured
trained
colleagues
relaxation
sockets
martial
statue
sparkly
extender
pores
inspiring
route
potentially
cushioning
##guard
crimin
steamer
environments
deserve
propane
dye
mildew
retailer
senior
divider
faux
convincing
hydrated
introduction
thermal
village
grainy
axe
mcg
alike
unbelievably
stabilizer
october
leaning
crocs
carrot
polarized
whistles
overlooked
encounter
saturated
saturday
##foam
unreal
craftsman
tomatoes
economical
enclosed
nyman
pulse
uploaded
citizens
buzzing
waffle
waffles
1c3
therapist
utensils
shadow
mosquitoes
piercing
unstable
addictive
rectangular
promotion
compelling
intermediate
sacrif
prettier
disturbing
illumination
elder
russian
stumbled
vertically
symptoms
foscam
refurbished
interchangeable
infrared
reflection
detergent
invaluable
deleted
unacceptable
toshiba
envelopes
bound
berry
bisc
cud
cub
cater
cds
casing
cuc
dess
duct
dental
ebook
fus
fib
font
fret
fittings
gently
hue
hint
jess
jum
jones
jvc
kines
lone
lug
lashes
md
mx
mant
mand
na
nin
nest
nyc
osc
oval
pm
pent
pap
pies
paced
rx
rud
rise
rhy
ropes
tummy
uku
vul
vents
vcr
wit
wre
woofer
zv
zinc
##iar
##nox
##gal
##vis
##vania
##table
##c7
##cis
##cal
##core
##hib
##dq
##dom
##wind
##wear
##walk
##wax
##fc
##lined
##ports
##bur
##xx
##92
##37
##jo
tho
thro
thunder
theft
##atly
toggle
##edge
##ona
##reg
##ari
##arr
##ancing
isnt
##ican
##uts
##vey
reed
reuse
haun
habits
##ete
##sticks
##alia
stash
##ching
##chang
prest
##adays
lil
##kee
shining
##through
dove
dodge
cha
chin
chimes
chime
alter
cann
canada
atm
##iler
fred
worker
mexic
quote
quilt
cos
coz
coins
##erson
wouldnt
fender
abd
spi
spices
spilled
spilling
tra
##oline
unhe
unused
unbeat
scul
##osh
##osamine
overse
overweight
climate
flask
blink
##robe
nowadays
dischar
royal
veg
grat
grit
grater
gravel
intent
strict
chef
caring
##plate
trilog
herbal
happiness
phant
pharm
crkt
readily
slipped
thrilling
resulting
rights
problematic
peach
##quis
simon
headrest
decently
contour
swip
swings
supplier
##orders
boxed
differently
cleanly
cleanup
##angler
skim
skates
skyl
##edia
##iox
impul
badger
runner
fuller
softness
##ruction
clearing
meters
dealer
weekly
corks
modest
remover
extraord
barrel
edited
optoma
b00b
b003
pains
lists
curtains
chrom
believing
screwing
scraper
insulation
considerable
touchpad
touchscreen
audible
figuring
loops
formats
transit
toyota
condens
legal
singer
grandparent
grandchild
rests
slightest
moms
visibility
fantasy
court
projected
similarly
worlds
assure
digging
passenger
savvy
loun
noticeably
sensation
tempted
drawing
occurs
2010
2006
vacations
dressed
##cover
england
technician
pushes
backpacking
antib
textbook
soldiers
upgrades
tunnel
160
16gb
cello
programmable
##thern
radiant
##hea
##heets
mirrors
focuses
bunny
counting
copied
cracking
tempered
rocker
rocking
shuts
yellowish
weakest
hype
mechanics
websites
splitter
candies
tradition
##ifiers
alternate
resolved
compete
weighed
effortlessly
individually
##ova
##uxe
inflate
washington
chemistry
transferred
questionable
laws
sexual
folio
priority
squeezer
sucker
torch
##resp
compressed
latter
extends
pouring
3000
destination
adequately
physically
servings
emergencies
lemons
affected
bearing
bearings
geomet
floppy
wattage
brainer
rattle
crashed
eliminates
##orescent
muffin
bitterness
breathable
climbing
aligned
##bells
strategic
deceiving
sophie
bullet
luxury
renov
forehead
cufflinks
clipper
session
overlook
cowork
determined
graduation
horizontally
tablesp
dlc
dlna
tacky
youthful
intriguing
theatrical
scotch
economy
anchor
anchors
executed
gathering
oversized
marinade
political
borrowed
stamped
gravy
therapy
utensil
1bk
groove
puppies
mileage
calibration
caddy
laminated
quirky
cloudy
crusts
rabbit
prescription
producers
underside
ornament
observations
lifesaver
gasket
stubborn
procedure
glucosamine
frizz
omega
samsonite
tasks
orchest
bookshelf
calorie
thieves
outrageous
draculaura
cradle
emphas
nutrients
landscape
blizzard
tweezers
styrofoam
invisible
sacrifice
ukule
unbeatable
trilogy
3ds
350
78
88
98
bomb
cul
cyl
dre
dip
duck
ea
emma
fist
ga
gf
gains
gunk
g10
ginger
greek
hired
hoses
ling
lays
lull
mason
nif
nud
nons
naked
nba
ooma
pine
pud
pail
rick
raid
rips
s3
sant
sipp
ta
tb
tau
tort
tester
ub
ugh
vue
violet
ww
wag
wins
yam
zones
##mw
##mies
##mint
##uous
##sk
##iw
##nic
##now
##vest
##rg
##rics
##year
##yrs
##oved
##oking
##oster
##tte
##can
##candy
##hc
##hor
##hot
##hand
##hire
##d3
##dly
##ddy
##fit
##lig
##ping
##pot
##bre
##burn
##64
##65
##xy
##88
##za
##200
##eries
##erved
##erves
##erget
##inis
##inal
##atable
##atics
andy
##llo
##itage
##asters
realy
hav
hay
whil
stating
##chain
##chair
pric
soaking
##cend
lipton
asp
shim
shaker
##irational
verify
seag
chase
chipping
neur
comics
exchang
lond
loaf
##oodle
##agen
##agree
##ami
##amiliar
frills
suv
usps
cogn
##aine
##ifies
##iffer
producing
budd
fears
femin
themed
themes
monday
spat
trop
tractor
##uning
tipping
##arts
recessed
leverage
league
##hero
enabled
energet
timeless
timepiece
unl
unise
##ablish
expired
scars
purs
arrow
claw
claws
blond
lightning
##rog
##roit
disli
dislike
disagree
##ipher
manly
grains
intake
intensive
instances
cheers
chevy
##assium
colog
awake
drains
monkey
newest
ourselves
glor
slack
slices
resin
downgr
downward
downfall
##quent
addiction
contamination
swad
cutest
weary
jody
watering
##berg
shoddy
recept
accum
##tech
bottled
retention
finest
protagon
beloved
realizing
conspir
plex
symp
solutions
warri
warped
costco
##mmed
strongest
wishes
broom
contrary
contrapt
infect
mods
indig
valves
emily
embro
redeem
portability
refers
showers
avoc
greens
b00g
b00d
perce
deliber
curb
believer
relie
huh
keychain
filmed
scramb
insulated
classics
presses
presence
presets
movements
apolog
panic
obnox
##athy
requiring
transmission
conduct
##ieties
maria
varieties
balloon
spends
garment
garmin
visited
generous
potassium
difficulties
warming
filler
cartoons
profit
passive
labs
calf
ipads
doorbell
particle
cupcakes
noneth
conditioning
angled
sends
deeply
monitoring
specialized
engage
failing
failures
specified
erase
processing
posture
sweetener
flee
fleas
lauren
##undy
1980
bald
creams
dutch
programmed
hearted
paragr
catcher
catches
reliably
unlikely
sadd
squish
squirt
crackers
teaches
circulation
positioned
##afting
telev
jeweler
kicking
tarp
defects
medela
scenery
scenario
##oba
powdered
roads
absorbed
commentary
170
alternatives
clicking
rotation
purely
weekends
answering
adores
transferring
refunded
indicate
##flow
consumption
burg
streets
reminded
hunter
possibilities
scarf
substance
##inoa
inspirational
souls
detector
detective
toothp
turkey
expandable
dissip
dissapo
crimp
planting
malt
princip
sampl
pipes
innoc
unfamiliar
blurry
absorbent
manageable
documentation
judge
procella
delta
deluxe
villain
gigs
ankles
strategies
encourages
##hyd
steril
cousins
humorous
insights
francis
ownership
sweeper
faucets
accomplished
rebu
concentrated
##cloth
clutter
accompanied
registered
collapsed
scheduled
subscribe
tinny
varying
sprinkle
belongings
disconnected
competitor
nipples
tactical
highlights
sennheisers
enclosure
pantry
skullcandy
increasingly
crawl
inserting
occupied
croch
masculine
treadmill
bodied
mentions
segments
album
texas
decrease
australia
paleo
branches
browse
scientific
inflammation
inflammatory
retractable
snorke
inspection
vocals
virgin
shepard
arrangement
incorrectly
merely
appliance
restrict
ceremony
geek
teaspoon
acceler
rinsing
zeld
scooter
rfid
##atisfied
inevitable
deflated
interfere
exclusively
sigma
mysterious
kirk
conflict
aperture
kinect
arnold
phyto
fussy
kinesiology
vulner
overseas
phantom
##quisite
corkscrew
ukulele
nifty
feminine
energetic
unisex
cologne
protagonist
embroider
nonetheless
paragraph
44
58
68
ak
aver
ack
ari
bast
bout
bows
bpa
cx
cav
cors
dn
dome
dand
dum
dated
ditch
derm
density
ek
ender
eater
fries
fusion
gly
gur
gates
gums
hs
hc
hz
hoo
hrs
jugg
jaws
kat
kitt
kink
kare
kang
les
lith
lub
mut
mul
mute
nas
nause
nada
nieces
ou
oc
pup
pert
paus
ral
rul
ramp
rpg
rachel
som
sir
sack
sake
sans
scept
ting
tid
tart
taper
um
viet
vga
witch
xp
yep
zuc
##mish
##mates
##mitted
##uel
##ucc
##sp
##sen
##set
##iam
##iel
##ng
##nb
##gic
##eel
##ext
##ront
##yo
##occ
##tb
##tub
##tling
##cream
##hf
##wy
##water
##warm
##fied
##pet
##pal
##ban
##baby
##kill
##kins
##kids
##68
##13
##150
##99
##24
##2b
##ji
thom
thail
##inart
tony
toned
##esis
##llas
##llers
##itate
##onal
##onts
##asps
##arre
##anoid
##lete
##omer
##utter
ree
halo
##eted
brad
brig
##ghetti
##alks
stow
##ched
prize
##owers
##idating
wastes
##advant
liber
##keys
##terol
sha
shears
seper
seating
chore
choles
changer
neop
##amount
dean
atl
alloy
plumber
##ilage
frying
sum
suic
usda
quinoa
outage
##ima
##ifer
##ifes
##iful
##elines
useable
##estruct
febr
abr
spool
trains
eastern
recon
recreat
reclin
engin
##gear
adder
##izable
waters
unob
##abb
perfume
smash
recommendable
cluster
clasps
officer
flop
flute
flips
flakes
backups
bog
##ending
disgu
disadvant
shea
roots
vegan
grant
intr
pose
poem
pointer
poison
playthrough
saff
handful
mature
lotions
##ource
carn
##acon
##00mah
herb
phr
acted
cran
cram
crumb
glock
glides
charming
slider
slats
throws
resident
##igned
deform
peep
wrapping
wrangler
sinc
containing
swapped
cutouts
minions
##orms
##ormous
gamepad
##feit
endure
accustom
##tec
##grow
##gram
roommate
skir
finicky
interaction
issued
gibs
installs
dime
earphone
coup
soften
replaceable
fastest
cleared
elite
remix
reminis
stuffer
aired
airlines
##oded
remod
index
indestruct
provider
values
breakage
breakouts
embr
discre
barrier
barbie
stepping
edc
portra
refilled
refuse
effectiveness
friendship
optional
b00s
describing
musicians
sharks
chron
believable
hdd
starb
relo
ipong
smoothness
preset
leftover
sprays
apc
markings
appearing
creation
creativity
serviceable
compares
legacy
marine
machined
resting
bikin
cookware
visits
rubbed
netbook
stopwatch
buildings
midw
midst
midori
distress
distances
projectors
irish
signature
hooking
cartilage
flatten
calves
particles
patent
rollers
temporary
prominent
freaking
combines
2009
2002
suitcases
speedy
yea
seasoned
conveniently
explos
explores
droid
dropper
engagement
wirelessly
lowering
filtered
tongs
postage
flew
shooter
1990
learns
balancing
countries
countdown
tuners
negot
contacting
sprayer
remembering
hearts
illusion
hurry
weakness
dispense
grinders
discovering
limits
preventing
parental
wiping
americans
kicks
timers
requirement
velvet
naval
smoker
develops
developing
antique
downloading
umbrellas
winters
melts
competing
juices
syncing
motorola
grabbed
captures
folk
burst
buried
critters
molded
engineered
aches
supreme
drainage
razer
drummer
masterpiece
baskets
substances
5000
targets
poured
liquids
involves
flavour
servo
lipstick
adventur
elasticity
moisturizing
toiletries
sequences
sporting
expanded
loosing
millions
mi6
emotions
navigating
fluorescent
bumping
gerber
stacked
dragon
hydro
escap
punishment
cleanser
responded
hallway
stationary
surfing
relationships
thermos
colours
psychic
psychological
debt
flora
xlr
alignment
discussing
screwdrivers
itching
spanish
privacy
adaptor
fooled
stabilization
admitted
intellect
pitcher
spares
sparks
scrubbing
cuffs
injured
ergonom
articles
spoiler
aids
pixel
spaghetti
syncs
mortal
##77m
notebooks
dramatically
collapsible
celery
resources
religious
distribute
fifth
scott
podcast
mineral
jello
aquar
smudge
permanently
digestive
politics
intelligence
bait
efficiency
unpacking
severely
troubleshoot
stinky
explorer
vibrations
albums
discolored
obstacles
evaluation
australian
nicest
nickel
cocktail
##11111111
snorkel
mowing
bidet
##natural
rewarding
spells
recycled
engraving
blessing
manipulate
cuisinart
bronze
prongs
conventional
disassemb
merchand
wilson
judgment
astonishing
gorilla
coordin
consequ
chlorine
plumbing
sugars
compromise
adopted
utterly
publisher
htct100
nurse
pelican
november
bladder
interpret
criminal
elderly
ninja
impulse
extraordinary
grandparents
tablespoon
yamaha
whilst
pricier
seagate
london
indiglo
1980s
burgundy
crochet
snorkeling
zelda
acknow
lithium
lubric
ralph
thailand
cholesterol
february
engines
indestructible
2d
37
56
8th
aka
bil
bos
bip
busted
bmw
capp
creek
cooper
dor
dna
ff
fought
fats
ferg
fading
gn
gore
gol
gus
gels
hort
hug
hmm
iphones
kh
kur
kore
kim
kens
kitten
komb
lon
msm
mrs
nv
nt
nub
national
nicks
pars
pbs
pyle
paws
poodle
qr
qid
ron
rus
rave
rats
rates
ripping
sq
sust
saus
tm
vig
wick
wav
##uity
##iq
##iable
##no
##gling
##vi
##ea
##eat
##rap
##rol
##ok
##ody
##cur
##hen
##ham
##hers
##aii
##dig
##days
##wm
##wer
##writ
##fish
##father
##pin
##kv
##650
##17
##59
##x4
##xter
##8e
##22
##ju
##jet
##era
##erts
##inst
tommy
##edar
##edict
##itzer
##oning
##rem
##isms
##eno
##aran
##oty
inks
ingen
##icate
##veill
reh
reps
revel
reels
##eters
##sec
##sell
bride
##stone
##step
##stage
bears
beams
stall
staining
##cha
pride
##ldark
##urable
##uries
noting
noticing
##ados
##ioned
##cement
lies
##keep
aspir
shaking
shimm
shaky
proport
dod
chock
hears
hefty
neon
##rix
exquisite
alk
##amas
##amaged
deer
dexter
atomic
plating
fry
sulf
succ
meats
##uls
##apix
coaster
coils
##uctu
##iforn
##iend
##ests
##estones
bummed
aband
moles
molle
sple
spite
spont
spacing
traged
troll
##unes
##arted
moreover
##ophile
##olt
recie
leon
enlight
enormous
compound
compost
ads
adher
unr
unbox
##umble
##abol
scabb
overc
overview
overkill
buys
ard
arab
clues
clipping
evenings
flaky
fluctu
blazer
boston
##aching
intimate
tek
stray
strang
struck
agrees
poldark
sapp
watchable
##ference
longest
hog
##udio
trio
trials
colon
batches
draining
drugs
crus
crooked
charl
readj
slo
slid
slam
##ails
finder
##mock
speck
guards
daycare
focal
additives
hardcore
deciding
##cia
contamin
context
##liable
minwax
farther
exceeds
##astically
jog
##phony
watered
surveill
servers
accidently
duration
##grad
camel
thoughtful
skipping
beings
##orses
intercom
standby
diary
dials
10x
esv
wary
##bean
##beats
regrett
inclined
##weigh
blacks
driven
dripping
clearance
secondly
elsa
breed
sniff
snob
costing
persons
wah
mustard
mustache
##iva
capital
brightly
metric
musk
collars
slender
infused
airline
airplay
corro
corpor
modify
modified
modification
indian
provoking
empt
disclaim
barks
stepped
testoster
avent
opted
b00f
b008
b0000
tightness
musician
fanci
curl
chopping
hugh
hotter
functioned
##boards
drywall
reply
thinning
pastel
sharpened
sweater
pancake
corded
maglite
sleeper
affix
bluer
natal
travelers
grandkids
restore
commute
bibs
visor
depos
entre
rubs
potter
netgear
silk
distr
projection
zipped
advertise
paperweight
horri
californ
cupboard
tempt
tempor
promoted
angel
humming
universe
operations
operates
baseball
viewfinder
dressy
explaining
multipurp
salty
salads
lowered
species
bathtub
complimented
stripping
entering
equipped
sweeten
evident
fleet
leadership
firmer
##ologist
118
119
dimension
linux
tender
releasing
releases
spotlight
heartbeat
radiator
##hey
parall
sealing
trackball
bungee
investors
stained
harley
ruger
activation
outdated
spoken
rocket
shutting
ranks
stretches
shotgun
dusty
budge
rained
hyg
prevented
scanned
##ocr
chewer
chewed
strengthening
northern
counterfeit
mouthpiece
buttercream
decorations
gardener
##1030
existed
furthermore
struggles
directional
undamaged
##flower
trails
establish
hunters
obscure
surrounding
torso
decker
chicks
gauges
utilized
utilize
spinner
tales
talent
talks
reflects
breathing
shrunk
sequels
sporty
expanding
stealing
punched
vendors
tossing
appropriately
loosened
spreads
spreader
scaling
tilted
wrenches
adhd
adhere
harmony
maintained
requests
heroes
stools
responds
tanks
##icians
unplugged
transporting
expressed
expression
resetting
debut
peppermint
deny
denim
philos
discussed
aimed
admir
veggie
gained
insightful
flashcard
mysteries
cuz
ventilation
illuminate
illuminated
accompany
ticking
ticket
charts
flicker
scrapes
scraping
hammock
prefect
cinemato
graduated
sprinkled
ferr
unreliable
belongs
fifty
tactile
incorpor
1998
1999
jerky
masks
tolerate
diseases
inconvenience
smudges
dubs
ecocraft
thousand
confirmed
occurred
dilig
##hole
unpacked
guidelines
reputable
transformer
passionate
binders
crock
mascara
risks
coinc
bodies
grooves
variable
fiddly
mccorm
victor
##folio
discoloration
interference
percentage
fiancee
telescoping
jackson
pooch
hawaii
upscale
upscaling
influenced
gustbuster
demonstrate
representative
dosage
infinity
infinite
commitment
creepy
calend
megapix
desperate
academic
emotionally
deodorant
kodak
luminox
reversible
fraying
compensate
revolution
rivets
wardrobe
thighs
whitening
##osphere
wrestling
regulations
portrayed
a7r
whiskey
pronoun
sheriff
nostalgic
bizarre
revenge
unpredict
excelent
attributes
restaurant
treasure
biscuit
cucumber
jumbo
pentax
throat
atmosphere
unhealthy
grandchildren
lounge
orchestra
nonsense
sippy
taupe
wagner
downgrade
conspiracy
warrior
contraption
scrambled
fleece
televisions
dn1030
mulch
tidy
vietnam
thomas
unobtrusive
saffron
sincere
accustomed
remix5
reminiscent
remodel
starbucks
bikini
adventurous
fergus
surveillance
disclaimer
testosterone
multipurpose
210
3g
450
5v
53
63
87
89
97
bust
bam
baff
baker
cm
cz
ces
cath
cried
cement
cakes
cedar
dx
dat
dou
dab
dare
dts
dates
dented
ecc
f2
fert
fax
fades
fetch
gs
gour
gaps
hind
hud
hbo
iu
ic
ios
icing
jbl
jpg
jazz
jasm
ker
kab
kurt
kava
kibble
lis
lion
lane
lnb
mh
mick
mict
misf
marsh
nook
naut
nib
nrg
p3
pes
ping
pion
pam
piss
pacing
ripp
ross
rank
races
roses
rural
si
tx
tat
tiss
ticks
tugging
uk
vin
vom
vague
ws
wiz
wisc
wander
xd
xx
yar
yan
yum
yah
##maid
##uase
##uables
##iance
##iating
##nation
##nies
##nels
##nifer
##vf
##ecess
##ruff
##rates
##ruit
##ya
##oint
##oided
##ckey
##hr
##aig
##d5
##04
##wan
##with
##f4
##liness
##lvania
##py
##belt
##bster
##6c
##67
##1b
##xia
##85
##zens
##28
##js
##joba
thier
thief
##erie
##inity
##inol
##inum
##oring
##atant
itunes
topp
token
tosl
##esse
andrew
andria
##ington
##lls
##llar
##onin
##real
##isance
##aring
##any
isa
##leton
##ott
##otto
inher
insole
##icc
##icable
##ication
reun
rewind
##semble
bru
brid
brook
brave
##ghan
##store
##stones
##stock
##stream
##static
bead
##aled
##ales
whites
sting
stiffer
##chi
##chup
pry
##ayed
##enta
##ential
shag
shore
shading
shuffle
##ths
##the
verse
sega
doom
dozens
chi
chond
chores
chunks
commend
theyre
##riers
##riever
loom
lodge
lobster
albe
orth
##aganda
##essa
##orement
allot
pluck
planted
suite
supr
suede
workbook
amber
amusing
outing
outings
outages
outweigh
upto
##asts
##imo
cones
feas
##ema
##ember
spine
##igan
##oper
##olage
compos
##sover
becuase
afghan
aforement
unload
##abl
exposing
priceless
##istan
scum
smiles
purity
purifier
recommendations
arsen
cling
clark
clog
clogs
offline
##inky
##inker
##aviolet
flange
flaking
setups
bland
boil
knight
lightest
##ffin
##road
disabled
mango
robb
grom
grates
##ousy
imac
fires
##enses
##ached
amaze
teams
tefl
strat
strapping
stranger
agent
pond
playable
sail
sailing
handic
hopper
carouse
carib
##00b
##tration
##uding
heritage
apples
drone
drake
drool
drank
mont
actu
colorado
seeking
cramp
cramps
crotch
craig
glide
slapped
slicing
bookcase
oldest
resc
resem
reseal
partial
defe
biggie
bites
downbeats
peels
funky
additions
hardened
decade
incident
exceed
secures
joined
jojoba
##phet
shopper
designing
accents
accidents
replaces
whereas
retriever
sketch
sont
fins
finer
turner
filtration
badge
receives
kidd
kiddo
sideways
101
earings
attest
attitude
feathers
superhero
fastened
extent
drips
wallpaper
pointy
brighten
metabol
muslin
bedside
##rence
lett
brooms
infre
corros
valid
valuables
##ibly
shorten
shortcom
shortcoming
smelly
discard
discovers
barbar
stellar
saws
portions
satin
refined
avoided
b006
painless
coffees
curs
terry
territ
resulted
staring
instructed
planner
bulova
keyword
gladly
mountains
##ttes
##onsin
presum
nearest
sprout
sprouts
sharpie
creations
panor
paddle
##erged
##athers
multitude
transaction
magenta
excuses
marry
marath
girly
invention
invited
##ella
committed
biolage
accessing
conform
confuse
confront
ruby
seatbelt
messes
buildup
silence
distilled
fantastically
understandable
irres
minded
assess
##neth
cartons
greenhouse
locker
morocc
flashy
flashes
scratchy
calming
##loc
fabrics
promote
promising
suggests
polo
freight
pumped
dropcam
viewed
showering
preferences
devast
devour
seasonal
seasonings
eyebr
salv
blemish
rubbery
stripe
entered
concerts
bassinet
soldier
imagin
shooters
energized
remembers
beaten
counts
countless
tunes
characteristics
streams
spotted
radios
shelving
paramount
bedrooms
tracker
firef
bunk
invested
county
linkid
beneath
harvest
appreh
photoshop
fatig
hikes
rocked
macar
doubled
jackets
weaker
essence
positioning
appreciates
rainbow
heights
bolster
personalities
pinky
##olds
succe
flawed
castle
danny
danaus
kicked
tarnish
vacuuming
miserable
theres
sushi
recharging
decorating
fights
clarify
webcam
swimsuit
effortless
skeleton
90s
knocking
repeating
repellent
meetings
emails
80s
waistband
grabbing
captiv
burgers
criteria
colleague
hunger
identification
squeezing
surrounded
surroundings
skeptic
possibility
recognition
envy
bangs
latte
utilizing
versatility
32gb
talented
fortunate
inspire
inspiration
physics
physician
35mm
lipsticks
detected
detection
strangely
breathe
lifted
meaningful
unbear
affects
approaching
robin
humanity
moisturize
toiletry
270
sequence
allergy
dissatisfied
irritate
crimes
addressed
steaming
##going
photographs
photographers
facility
ketchup
propaganda
straws
ultraviolet
duo
duke
mildly
pathetic
platinum
joystick
complexion
groceries
##safe
ensures
dragging
eliminated
hydrating
excessively
unplugging
froze
battlefield
opportunities
debating
platforms
predecess
buffet
brewed
skyrim
bulkier
aiming
depressing
quantities
seamless
seamlessly
peek
trendy
illustrated
gems
renew
reveals
distorted
achievement
fascinated
kenneth
virtual
rebel
scooping
trimmed
visuals
jesse
morton
illuminates
faithful
biography
sorely
sturdiness
collapses
complimentary
enthusiasm
remained
religion
precisely
graduate
murdered
demonstr
african
mathem
diagr
narrower
hobbyist
investigate
ashamed
scuffs
cautious
jerk
tolerable
tolerance
reactions
granola
independently
marinades
frosted
frosting
prevention
bleeding
dumped
puffy
venue
venues
rapidly
binding
halter
shadows
exploration
segment
decreased
cigare
fulfill
laminate
rhin
quirks
interferes
evolution
reinforced
telescope
azra
nuisance
monopod
crowd
laboratory
symbols
grooming
exaggerated
interactive
terminal
memorable
punctured
appliances
predictable
audiophile
##iiiiiiii
kisses
migrain
plunge
plunger
coupled
corrupt
networking
irrational
irrationality
caliper
calipers
eraser
experiments
cymbal
cymbals
diagnosis
dangling
ivory
jennifer
praise
september
chords
cpu
derdig
joseph
pivot
inhab
rendering
alpha
controversial
submarines
qc15
taiwan
brutal
assassin
dessert
oscar
witness
zvox
cannon
mexico
sculpt
vegas
g1077m
nudity
shimmer
buddies
spatula
tropical
##roitin
obnoxious
innocent
rebuild
embroidery
dandruff
zucch
neoprene
atlant
recreational
skirts
gibson
discreet
admittedly
aquarium
troubleshooting
merchandise
cappucc
golfer
parsley
sustain
alkal
tragedy
scabbard
strangers
natalie
california
parallel
cinematography
ecocraftworld
mccormick
sincerely
fertil
mictuning
pioneer
wisconsin
toslink
albeit
aforementioned
teflon
resealable
shortcomings
barbara
territory
keywords
derdigki
05
09
2k
41
480
54
550
66
79
900
9mm
ais
ave
aust
aus
ape
bom
bore
bak
bans
cn
cree
db
dom
dach
dreme
drew
dipping
ecl
echo
fue
fier
fried
fda
gy
gou
gill
gage
gins
gaining
gta
gummy
gender
h4
hb
hut
hull
horm
hatch
hides
hank
hips
hills
hints
hugs
il
jord
junky
jinn
ky
kil
kite
kath
kinks
lac
lube
lugs
luster
linger
lyn
lousy
moth
mia
m50
muted
nich
oe
ole
otc
pg
pon
pays
ppl
pmp
rd
rite
rake
riv
rises
rival
ramb
rpm
rico
sab
savor
serial
tt
tp
tac
tbs
tapping
uhd
vl
vas
vall
wis
wik
wifes
yi
yell
zips
zeal
##mn
##mers
##mus
##mail
##mets
##meric
##uish
##sons
##ship
##ias
##iac
##iors
##ns
##ggin
##eg
##rice
##rous
##rows
##rane
##oft
##obe
##tf
##tion
##town
##cb
##cor
##cence
##caster
##hin
##aways
##aque
##dles
##dog
##07
##ws
##win
##wter
##wash
##fect
##free
##fps
##lt
##lim
##lining
##pn
##pit
##pion
##pol
##pace
##44
##46
##qp
##bone
##bows
##62
##1s
##xus
##x12
##82
##zards
##zona
##31
##2d
##23
##260
##jk
##´s
thy
thean
##inch
##inate
##nders
##ouj
it´s
toaster
##eda
##esher
##inge
##lli
##lley
##itis
##itect
##itos
##itative
##rey
##rection
##aser
##isca
##arks
##anity
##omy
##ottle
inward
##icion
forum
forty
forec
forsk
rever
ream
reef
hah
bras
brag
brakes
##ghz
##star
##stein
beet
bella
##alur
##oos
wham
whip
stut
stencil
prist
##owed
##verts
weber
notable
sooth
soaks
soiled
##entine
anc
anol
shy
shifting
arent
proact
##irable
verd
sear
sears
doh
##illes
cher
chop
hem
heft
neew
exotic
exhib
loans
looms
org
##agic
deaf
atro
allah
pliable
fraud
mega
amy
quil
quotes
##aphing
copp
coded
##uctions
uphol
iffy
##estic
fees
spind
spouse
spaced
spiders
traction
nova
##opl
##oli
##oland
##vens
encom
envision
enamel
ensemble
gosh
##acts
##acterial
waterf
unm
unch
unav
unint
uncover
##uma
##umph
thereby
##isting
scand
scans
scents
##osity
smith
smiled
donut
pursuit
recomiend
argue
clown
client
cliff
clumps
prenat
##avas
##avis
##avings
##azing
flaps
perfected
backed
backward
blah
bloom
blessed
blatant
boats
bobby
knit
##enders
betta
##rolling
disint
bypass
sheep
roaches
gram
gramm
impl
imho
imitation
##ensional
##achi
intro
teether
smallish
sac
instit
cheat
cheated
cheerful
cheats
checks
hobb
hockey
matrix
carl
cared
carver
carab
carbs
ops
##acent
clears
##plus
##uded
tripped
triumph
column
appoint
drown
drills
droop
actuality
##ondition
crink
credi
craving
charity
readable
bestbu
##irect
hiss
resume
defiantly
packet
packets
##mob
##moon
peg
pell
pewter
##pered
foggy
sims
simmer
##plex
headed
hardest
decides
swamp
wearable
##ublic
##ubby
##bert
shopped
larry
##feld
##othy
##anges
retire
retinol
underlying
skipped
bothers
prote
openings
realizes
installer
filed
consult
conserv
diarr
sidewalk
earpl
weighty
solves
couples
superman
supernatural
fastener
extensions
eliz
20mm
snoo
snake
nighttime
##erto
costumes
completing
##ivan
brightest
brightens
##ocking
adjuster
dealership
##rency
stuffers
##cript
contrad
mighty
aircraft
airports
husky
orient
oriented
##ouched
discl
discip
discern
originals
reds
barometer
steaks
eden
refilling
avi
b00n
b00e
gene
genres
genev
peripher
handlebars
shares
curling
cursing
currency
eyep
##issa
terror
belief
starters
winding
maine
hotels
##lights
insign
inspected
insurance
insassy
dryness
preserv
satisfy
linear
repurch
republic
subd
marking
##aids
sweets
ledge
appearances
1500
sunsh
sunflower
multit
condo
schn
marital
affair
usefulness
invo
blueberry
##elle
ballet
restocking
##ipsch
visc
##master
confess
generate
courte
organizers
warmers
fillers
mindful
hookup
asset
carts
electro
locket
caliber
flavoring
misses
doorways
patiently
immune
sensible
temps
nonstick
promotes
polishing
annual
annov
behold
drawbacks
pope
frets
humour
combinations
2003
meanwhile
mattresses
##bra
exploded
specialty
salon
salmon
attraction
straighten
respir
wristband
technolog
stripper
processes
colder
sweetness
##umba
##umbling
layered
volley
flea
nutty
penet
firmness
1920
1970
glob
global
dimmable
dimensional
deadly
businesses
##ajo
relevant
peter
authority
authorized
illness
##heim
separating
parr
para
140
maxed
investing
investments
linked
mailing
sandy
sandpaper
copter
60d
60hz
saddle
squares
cracker
fingern
necessities
ranch
##cony
sorted
appreciation
##after
hyalur
negatively
supplemental
splits
splinter
crossing
meditation
suffici
wedges
wednes
positively
blocked
countertop
##obrew
butterfl
antiqu
downloads
winning
clicked
melissa
rott
rotates
juicer
##shund
threading
weighing
avoiding
blended
awareness
commonly
latex
ipods
slimmer
capturing
trailers
estate
estimate
streep
priorities
cinch
meantime
rusty
sucking
mobility
controlling
fuji
landed
landing
lifel
scarves
stripes
referred
recognizes
banged
lattes
spirits
sparkles
porter
vanessa
soups
lasers
detectors
swinging
turmeric
affection
approached
225
robot
vegetarian
responsibility
moisturized
##works
##working
shrinks
##ceram
warnings
facil
snacking
miata
waxy
maximize
breads
bounced
bouncing
murders
urge
urban
darling
bumpy
divided
accordingly
woke
woven
stackable
hydration
lags
escal
configure
hideous
architect
assumption
cereals
lanyard
jamming
jammed
asth
climates
newspaper
behaved
villisca
discussion
dpi
kayaks
breasts
calculate
##iosis
encouraged
authenticity
hinged
talexia
reincar
foolish
latches
admire
shredder
sparingly
trends
anticipate
anticipation
injuries
trimmers
pistols
cowboy
dentist
##abeth
premier
association
troubled
taxes
yorkie
hamper
extensively
religions
licens
wounded
optimal
detached
submerged
distribution
categories
tackle
##pedic
cosmetics
motivated
investigation
publication
converted
legendary
aggrav
elementary
ghosts
bibles
pests
bristle
execut
execution
tweaking
tweaked
innovation
gatherings
hershey
110v
unfolds
unfolding
embarrassing
almonds
clogging
1cw
oreo
oregan
puffiness
cancel
comprehend
arcade
##azzi
gravity
reordered
exhausted
employees
variations
puppet
spiralizer
dumbbells
fiddle
rumm
beefy
evaluate
cigar
krill
rhino
branch
scientists
bonding
softboxes
nike
noodle
monoprice
vocal
celebration
mushy
mushroom
shepher
clinical
clinically
knotted
assigned
influence
mitts
inquir
downsides
sneakers
demonstration
dreaded
pirate
altimeter
teaspoons
accepting
celestial
pimples
quartz
lends
disassemble
desperately
civic
civil
kodi
crossover
networks
erasers
duplicate
aesthetics
aesthetically
junior
klipsch
mesmer
stimul
shinny
channe
argument
##aaaaaaaaaaaaaaaa
ranging
##oleum
dolph
congrat
unzip
scorpion
intricate
diabetic
conclude
sanitizer
caulk
dongle
henry
deployed
intimidating
cheeks
interrupted
jessie
lonely
naive
wreck
presto
spikes
discharge
swipe
antibacterial
geometry
coworkers
frizzy
gaiters
santa
havoc
disliked
avocado
toothpaste
maltese
principles
sampler
phytoceram
vulnerable
avery
arizona
dermat
ekobrew
ruler
suicide
recliner
disguise
poems
portrait
chronograph
disassembled
bosch
kombat
sausage
vigor
wavy
##writer
spontaneously
leonard
ardu
arabic
sapphire
readjust
regretted
corroded
deposits
established
calendar
unpredictable
jasmine
wizard
chondroitin
feasible
composer
caribbean
cramped
metabolism
lettuce
infrequent
corrosion
panorama
apprehensive
captivating
mathematics
rhinestones
zucchini
dachshund
dremel
jordan
valley
theanine
forskolin
pristine
anolon
neewer
atrocious
bestbuy
diarrhea
annovazzi
technologies
volleyball
hyaluronic
sufficiently
butterflies
01
07
1x
1tb
320
57
61
67
6th
6ft
650
77
83
839
92
9th
aven
b5
bapt
bmi
bachel
cc
cus
cure
cages
dak
dick
dens
dug
dude
dizz
dummy
dazz
e4
eli
fx
fen
fel
fate
fakes
foul
gest
guss
gifting
gitz
h1
hoop
hinder
horses
hicc
ion
icy
jr
jag
jail
jams
ly
lt
lc
lk
lam
lather
lush
laps
lym
lamb
m4
mous
mph
mash
maf
mkv
mavis
nit
nomin
oy
oo
pv
py
pt
pom
pong
pach
paw
pelt
paj
px4
qa
qur
rains
rational
rushing
rented
riser
rucks
sf
sak
sib
sassy
sowers
tes
tay
tinted
tues
tether
tcl
tatt
t27
von
vud
vases
vented
vtech
wy
wub
wakes
witty
x1
xan
yl
yang
zirc
zumba
##mor
##mont
##mitting
##uu
##ui
##uki
##si
##iat
##iams
##nas
##nier
##niest
##vs
##v3
##vals
##vices
##ez
##ech
##rist
##yx
##ois
##oly
##ointed
##tm
##c4
##cke
##cers
##hill
##hard
##hist
##houses
##db
##dar
##die
##wr
##will
##f2
##fed
##fers
##fah
##fold
##foot
##lm
##lit
##low
##last
##lop
##lifting
##pk
##pick
##pieces
##bp
##b6
##bate
##bull
##kh
##k0
##kers
##kind
##kens
##1x
##7j
##84
##zr
##zo
##zed
##zilla
##zema
##98
##34
##360
##250
##jud
thri
thorn
##eral
##erun
##inters
##ndr
##attered
##atonin
##oux
toll
topped
topping
##eday
##eses
##esee
##esium
andre
##inga
##itor
##onia
##asion
##asive
##isoft
##enic
##aroo
##anes
##anas
##anter
##anouj
##lee
##leen
##least
##lett
inade
inapp
inject
inability
inlay
##icle
##icating
onion
forcing
forums
foresee
reck
rewards
reused
regrow
hamm
hagg
hazel
##etz
##seen
brav
brads
##stitch
##stuff
##string
##studio
whiter
sta
stal
stam
stout
stake
stark
##chy
prank
##owing
##ldom
##urge
weave
notwith
##celain
libro
asia
anth
shes
shank
shallow
verge
seldom
doses
chel
chilled
chief
chero
chunky
chubby
##rimp
##rika
exams
logan
logging
##ected
canoe
##amor
##amental
dearm
delete
atleast
allies
##ightly
plum
fract
frogs
fronts
fruity
fresher
likewise
sull
mep
mend
mead
amper
ambit
quot
##apor
coby
outp
outline
upcon
upwards
confortable
##elp
##elow
##eland
buen
buoy
producto
productive
##augh
abund
abused
williams
mol
moka
##emption
wellness
spig
tru
easel
##unct
##igi
##igible
anyhow
##opard
##opher
##ophy
##oliosis
recline
##users
##venir
leans
legged
adam
advers
unaut
unnot
unfor
unfl
uninst
##ationally
##about
##abies
exped
explic
##earing
##istible
##istration
scub
scoliosis
overr
overload
overdri
donald
##iched
arom
clams
offensive
preach
preced
prepping
flare
flair
perfecto
backside
backlit
blo
blisters
bobb
knur
knick
knots
lighted
lightness
fitment
disorder
disga
disapo
##ipers
mans
managing
sheen
rode
rooted
grac
grilled
gritty
imo
fired
firing
twitch
twitter
tee
strum
strands
pov
poetic
desirable
handmade
hopping
whopping
mates
lotta
carriers
opaque
##acion
##accur
##00k
##pless
awe
awards
battling
appl
phosph
drab
drastically
monkeys
crab
crush
crashing
crops
crafting
makita
glory
slant
sliced
sliver
##ailable
partners
define
bigelow
biting
##pray
##print
peed
peers
##quet
##plete
sinus
hardy
##cience
beforehand
swift
swatch
cutout
mince
##ormal
excell
gamec
##peare
##apple
supper
startling
defined
joining
##phatic
watery
##berries
shove
designers
accounting
acclaim
##telling
camelb
replica
retired
retains
underground
skater
skips
bothersome
protr
openers
installment
filing
filmm
consoles
conserve
standpoint
diets
divers
diverse
finely
branding
fullest
warren
attire
plastics
heaviest
##bee
##beans
registers
regulate
##weld
blackheads
absent
remedy
perspir
##tones
stylist
hairline
haircut
baba
persona
##wheel
capri
##ucky
##ucker
muslim
##ogany
brocc
skincare
coral
corps
corresp
correction
indirect
breakdown
orign
shorted
shortage
shortened
emb
emul
embell
discon
discour
redes
redund
barley
steels
aviator
caller
b00a
deterior
detract
dvi
genesis
paints
perch
permitted
perpet
##ews
curves
##ission
terrier
payed
##umpy
windscreen
relate
relatives
choc
choking
customization
totes
##venth
##mbps
insist
insuff
insists
presently
leftovers
washcloth
checkbook
bandw
touchy
pastor
loofah
155
creator
creatures
sunset
padlock
studied
obli
obama
obtrusive
##inson
transfers
mags
magically
legos
girth
finishes
varies
varied
##anka
christopher
inviting
ballistic
grandpa
grandfather
grandsons
commut
commuting
biased
accessed
garnish
mixamp
depict
builder
midnight
understands
carton
armed
possessed
profound
paperwork
whey
moringa
passages
kitchenaid
patr
collects
motors
cupcake
cat5
fingert
anna
casters
##stery
drawstring
angels
combining
speakerphone
treating
dais
presentations
showerhead
eyeglass
psu
marketplace
burners
displaying
hitachi
stole
attracts
erotic
straightened
techno
freshness
posting
loudly
##commend
launder
textures
artists
##aska
pengu
197
116
balcony
creamer
heaters
borrows
##ieldy
135
1300
exceptions
actiontec
##eryl
radius
flyer
paris
paranoid
walnut
mira
mirac
puerto
reliance
counters
idi
linking
mailers
sandisk
copying
stockings
animated
fatty
browns
jeff
guidebook
chooses
initials
labeling
strolling
bolted
hyp
hypo
claiming
dispose
increments
grinds
discovery
discoveries
boned
casts
limes
splitting
repairable
repairman
preventative
candid
daniel
chewy
logos
wheelchair
twisting
consists
tarn
tradem
oppon
blockbuster
mispl
soreness
mouths
developers
absorbing
geared
sinking
bends
soapy
snowy
decorate
##iliary
zooming
melting
melatonin
fighter
pools
vibe
clarinet
goose
googled
barked
swims
exists
hassles
ravens
credited
inflation
washings
magnesium
blending
teeny
synch
802
primer
ruins
granddaughters
crispy
burl
estro
identified
minimalist
surrounds
rustic
engineers
achilles
superf
drained
johnson
##oxide
countryside
scarlett
banging
sparkling
extending
porcelain
##cracy
stereoty
##ringer
precaut
lumps
madness
madden
souvenir
unsafe
unsightly
accepted
reflector
reflecting
terrified
##ropriate
educated
kingdom
brilliantly
affecting
approaches
amongst
rolex
moisturizers
geforce
knowledgeable
tangles
expands
dissapp
addresses
ghanouj
arrange
deserved
facilities
fields
miller
##rupt
retailers
chromecast
gentleman
hoodie
complexity
bounces
fluke
blurred
patchi
subjective
structures
structured
dragged
introduce
documentaries
picnic
tanning
enhances
experts
55mm
cruel
peaceful
visitors
##ettes
proceed
seedlings
transportation
continuing
routinely
creases
crevices
suspicious
psychology
dashboard
roasting
davis
villains
subsided
philip
calculating
axle
mcpol
steadily
demands
qualified
adapted
adaptable
unwieldy
latching
##blade
depressed
dispensing
medication
octave
attacked
trendnet
illustrate
cyber
htp
htpc
ssid
amplifiers
scrubbed
sweeping
economic
polaroid
kenko
panda
rebound
spawn
officially
concentrate
sooooo
satellites
oxy
oxid
pacific
##yrhin
illuminating
integration
substantially
barefoot
storms
hairspray
optimistic
sprinkler
distributed
represents
represented
msi
disconnects
motivation
investigating
configurations
mosquitos
fifteen
julie
julia
julien
champions
untangle
##iyama
blinds
tweak
refrigerated
oversize
flowery
cleverly
explanatory
baof
rebooted
alertness
swallowed
trekking
experimenting
bern
diluted
occupy
ecstatic
eczema
fedex
risking
symphony
sharpeners
exploring
revealed
auxiliary
cycles
diesel
koi
mentally
mahogany
rumble
rumors
victory
chainsaw
obstruct
krist
zombie
toasted
accentu
assorted
publishers
reinforcement
caveat
lucy
##pcs
suspenseful
mowers
tilts
stirring
proudly
shakespeare
exaggeration
producer
interactions
terminals
festival
gangster
oakley
inquest
hackman
hauling
compelled
elevator
eyelashes
lifespan
alexander
dunno
gaskets
kleen
recycling
celeste
aerator
##ienic
##borne
lenders
freakin
gimmick
iconic
isolation
hazardous
corruption
duplicates
experimented
astonished
lukewarm
mla
racco
veterans
thirds
regulator
legitimate
luna
lunar
inhum
alphabet
rooting
reservations
imperfections
marvelous
dissolve
dissolves
museum
explode
inconsistent
interviews
snuggly
indentation
errands
unrealistic
cubic
paprika
rx500
haunting
chaos
freddy
cosplay
strictly
skylink
chromium
##respons
cylinder
lullabies
ubisoft
##horized
pursue
glorified
swaddling
receptacle
sympath
redeeming
perception
deliberately
dissapointed
corsair
kitties
pauses
someday
seperate
abrasive
adderrx
intrusive
phrases
coupon
midwest
explosions
intellectual
ergonomics
acknowledge
kuriyama
ingenious
recieve
sloppy
contaminated
affixed
temporarily
spreadsheets
philosophy
diligence
coincidence
pronounced
doug
reunion
arsenal
robbers
carousel
kiddos
presumably
marathon
irresistible
moroccan
eyebrows
fatigue
unbearable
predecessor
demonstrating
diagrams
cigarette
cappuccino
fertilizer
apex
fierce
h4n
kathleen
lacquer
lingerie
rivals
tbsp
wisdom
zealand
ancest
verdict
upholstery
encompass
envisioned
waterfall
uncharted
unavailable
recomiendo
prenatal
disintegr
carabiner
credible
elizabeth
orientation
geneva
schnau
courteous
parrot
reincarnation
oregano
shepherd
mesmerized
phytoceramides
arduino
bachelor
gitzo
lymphatic
pachyrhin
quran
rucksack
tuesday
vudu
andrea
inadequ
haggar
stamina
notwithstanding
cherokee
dearmond
ambitious
unauthorized
explicit
scuba
disgaea
perspiration
broccoli
correspond
redundant
mcpolo
pachyrhinosaurus
1r
1a
2c
2l
280
3am
4a
5r
51
59
6x
72
84
81
82
ai
a2
ain
ace
ail
aided
arie
ahh
bis
bice
bers
bough
bhip
borders
bacon
cb
cust
cact
cia
d5
dow
dus
dair
dict
dsc
diction
dandy
ef
eve
eos
elix
fb
f1
f3
fart
fright
fizz
fumbling
g7
g2
ging
gord
gory
goof
gator
gbox
germ
guts
hw
hed
hough
homet
hots
hath
houst
i7
ian
iam
i60
jon
jay
jel
jab
jac
jans
jee
jude
jitter
josh
ku
kor
kent
kors
keds
lind
lick
lure
lup
lumb
mt
mit
maz
mish
mmo
merm
mamm
mouses
meryl
nc
nad
nus
nate
nite
nour
nars
nuc
nerve
nano
om
ocd
ota
pp
pep
pave
pci
pamp
pups
porn
ricer
rude
raving
rushed
s6
s2
sie
sals
t4
tir
tam
tund
tamb
tzu
ufo
uc2
v6
vic
vouch
vale
vangu
vicious
wally
wreat
wich
x4
xbr
yacon
zapper
##mph
##uv
##uke
##upp
##uation
##uper
##sx
##i8
##ij
##iotics
##nc
##nap
##note
##nics
##got
##gel
##gate
##gos
##gies
##green
##gami
##vm
##vu
##v0
##vial
##egal
##range
##rator
##oic
##och
##olla
##tone
##tze
##cv
##c5
##cups
##cope
##ht
##hp
##hed
##han
##hirt
##a4
##afer
##dz
##don
##done
##dings
##01
##wa
##wb
##w2
##wick
##wire
##fair
##frog
##lar
##lam
##life
##laced
##lists
##p8
##pen
##pay
##pill
##pri
##pix
##49
##b3
##bir
##bish
##bread
##bling
##bites
##kd
##kp
##kq
##6q
##69
##63
##56
##x1
##x10
##9c
##94
##975
##3s
##3i
##3f
##jn
##j0
##jw
thi
thad
thong
thurs
theses
##erk
##erse
##erving
##inated
##inery
##infect
##oric
##organ
##atient
tokens
##edic
##eddar
##itated
##itably
##itations
##oni
##reak
##reau
##asue
##isure
##isons
##engage
##engers
##enberg
##arat
##arios
##aning
##ancers
##lear
##leum
##omall
##otive
##otrop
inad
inline
invert
inequ
inverter
inaccur
##icit
##icality
##icting
##icial
##utche
ongoing
reass
reign
##etah
##etta
##see
##send
##seed
##section
##seeds
brides
brains
brian
##ctar
##lyn
##stri
##storm
bees
bever
##alo
##ala
##alth
##alone
stab
stats
stacks
stakes
##chief
prism
priest
prius
##oware
##alling
##idad
##idth
##idia
##urate
##verty
wealth
notep
noticable
##ader
##adation
##adier
soaps
##cell
lig
lik
lizard
lizards
ascor
anne
shab
shah
shih
shaved
shrimp
prose
prohib
prophet
vera
seas
seep
seated
seaw
worms
##ppence
chry
churn
chances
chai
chilling
cheddar
##usters
hein
nectar
##rig
exos
loan
loft
logs
logged
loafer
##ector
aloe
alerts
orion
##esses
##ession
##amble
dehyd
allev
##ights
plag
plair
plots
##acker
##acking
##ilant
froth
framing
workable
workstation
mellow
megu
##ulas
##ulum
##ulations
amare
quoted
quinn
##apes
##apoo
##apable
##apie
justcke
goodwill
##ucted
##uctive
##iments
##ifter
cono
conve
conver
conqu
conquer
##elo
##esting
##estation
##ounded
feb
fever
aber
abst
moh
mo1
moen
mops
mosa
spit
##anded
trin
tract
tracy
truss
trunks
tragic
##unci
##igital
##orted
noble
noses
##opters
##opract
##olas
##olis
##olar
##olic
recycle
reconnect
reccommend
leah
leela
leopard
enfor
enforce
everlast
composition
##akey
goat
gods
godd
gobb
##itta
becasue
muy
una
unp
union
unim
uninter
unto
unroll
unlist
thereafter
##abs
##abi
expenses
##acell
##iste
##ista
scour
scooper
scoops
smashing
smarter
smashed
overb
donkey
afterward
offices
offense
preamp
##azzy
flint
floss
flix
flann
flames
blister
blunt
bostitch
knuck
gothic
beta
betray
##roleum
disinfect
disengage
##ipedia
manic
manfr
robs
rogain
keen
highway
highchair
intel
intest
teac
strung
strapped
agents
agency
poked
poking
poverty
desks
descent
watchband
##owner
handler
cheep
cheery
cheeses
cheetah
hogan
matric
##ours
carol
##acl
##acer
##acin
##acies
##acock
wayfair
drm
monoxide
newbie
##ulloch
soundbl
soundstage
keepers
helpless
crop
craz
crud
cruc
crushing
crude
acer
acre
glows
glider
readout
slap
slate
slave
slows
slouch
slugg
thresh
throttle
resh
reside
respected
reserved
cams
camo
downtown
findings
peas
peacock
gui
guilt
##quite
##queness
fogging
##ptv
decl
decanter
##ciating
screamed
cheapy
swat
swapping
swatter
switzer
farber
income
incapable
boxy
boxee
definatly
joan
joanna
##bery
##feeding
surly
serrated
cleanse
ende
endlessly
endurance
acces
##tex
camels
##asonable
retaining
underrated
skis
skid
##bok
finale
##edied
intervals
turntable
realization
filthy
considers
conscience
impatient
division
excellently
hopeless
sylvania
syndr
10k
10th
##deck
##degrad
doggie
weightmaster
solving
attended
plasticy
##bey
softest
supergl
registration
##eee
##weiler
extrem
drift
elk
elbows
remake
remedied
202
persian
persistent
snare
snark
nightlight
kinderg
haird
##mmmm
gamble
adjacent
##ivit
cape
collins
collagen
adjustability
cools
bedtime
leth
lettering
contractor
infants
infra
inflex
infestation
skins
airy
airbrush
airflow
airborne
lowe
lowes
corny
correl
corolla
module
##odies
probotics
pickups
careers
careless
shortcut
emer
emits
discrete
redemption
barg
stew
steiner
edward
editions
portman
eleven
eleph
childs
b00t
b0050
perks
handlebar
sharma
curc
cured
curled
bottoms
terrest
beliefs
starring
relish
chopped
maintains
mainstream
customizable
bulge
micca
##tto
leveling
insult
darken
darkest
125
1200
handset
sharpens
sweats
swelling
figur
creature
sunr
##athead
transmitting
comparative
comparisons
fairness
sleepy
marble
##enco
girdle
singers
affairs
bluish
##vertently
volts
christians
machinery
##elled
rested
woodworking
bioware
accessor
garments
garnet
techs
entries
pocketbook
30s
rubbish
alongside
damages
grie
grime
grippy
griffin
generated
availability
poses
potion
organiz
medias
fillings
irons
assault
digs
profitable
greenhouses
handyman
50s
morality
passable
passengers
widely
healthiest
calmed
##kyo
doorstep
patri
collective
collections
powders
moto
immerse
senses
sensational
cattle
templ
template
behave
behringer
population
guitarist
##oofers
afforded
birthdays
angeles
centering
humane
uniqueness
2005
200mm
operator
operational
viewers
presenting
lengthy
vacum
ps2
boarding
marketed
campers
campfire
##bridge
advis
explored
##coat
stopper
stoppers
acres
toners
bathtime
##aneous
stephen
freshly
enterpr
posters
sweetened
loudest
##comed
miniature
void
quests
laurel
nutrit
soldered
artif
artistic
closets
1960
1976
1972
tabletop
115
globs
energizer
13th
dims
tunnels
16mm
selfies
linen
neglect
neglig
streamed
streamlined
inkjet
spotify
petroleum
##yclop
illegal
##heart
ohm
separation
parad
parody
catchy
manuals
inexpensively
##ronts
##etherapie
firearm
bunnies
uniquely
sandbox
feeders
harp
harbor
squinting
squished
moderation
crackling
animations
playset
rocky
shockproof
trusting
yellowing
circuits
essay
appreciative
encyclop
approve
periodically
personalized
##ylene
minimize
beginnings
casting
splashes
splatter
splurge
repairing
quietly
wipers
crossed
crosses
crossword
##ocate
chewers
wheeler
foamy
accomod
suffice
suffers
weddings
applicator
opposing
scenarios
godzilla
godsend
smoky
susan
squeak
squeaking
recharged
dads
daddy
decorated
melitta
epare
pcs
slipper
situated
gooey
googling
rotated
##shock
ozeri
##ovs
disappoints
##mining
inflating
inflatable
crisis
knocks
knockoff
repeats
synth
motorized
accidental
lawyer
antennas
sexuality
stressful
ladle
sauces
violins
billions
pedic
ruining
forgetting
laughable
undo
slimy
folic
beaches
trainers
autofo
pendants
observe
shaping
clocks
mirrored
ache
aching
bloodsh
##ordered
bubbling
chickens
specification
mastered
masterful
roma
statements
statistics
32oz
tripods
fortetherapie
selecting
ripe
carpeted
destiny
destruction
lumber
grader
detectives
objectives
briefs
educate
lifts
swingline
cushioned
diego
gallery
bearable
sights
magician
cashews
##certing
stealth
floats
loosens
ghz
honeymoon
arrested
premiere
sample
samuel
proposition
depths
##rukh
simplistic
breadth
murray
widest
darks
harmon
ensuring
divine
requesting
assisted
dinnerware
banjo
germin
sickness
stacking
convince
fabulously
contrasting
configured
documented
picnics
archive
cleansing
bankrupt
judy
judging
wildly
hallomall
enhancers
##imentary
achieved
secretly
secretary
breathes
environmental
28mm
##zyme
suspended
suspension
genuinely
astro
tails
discusses
gigging
ignor
ignored
revised
anker
breastfeeding
communicating
dedication
palmit
uncons
scissor
encouraging
reinst
deceased
adaptation
unwr
hilarity
brita
britney
welcomed
franken
medications
21st
leaned
desktops
glitchy
pinched
pinching
42x
rawh
anxious
acoustics
b0002
distortions
achievements
pandigital
shifts
overlap
mislead
mortar
accompanying
biograph
biodegrad
peanuts
swivels
sturdily
enthusiastic
religiously
unexpectedly
##bags
overwhelmed
diagonal
refillable
optimus
shrinkage
kettlebell
kettlebells
msr
tacked
hobbyists
motivate
juliet
chatting
convertible
untouched
unlocked
scuffed
jersey
pestic
reacted
editor
launcher
launched
sagging
digestion
explanations
wobbles
flatscreen
steeped
tremendously
oregon
stems
cherryheads
cancelled
delayed
crawling
occupation
halves
chamois
coaxial
disgusted
screaming
employee
variation
vibrating
spiralize
mcculloch
pierced
beeping
heavens
scrolls
retrieved
understated
calibrated
powershot
lanterns
cigars
fulfilled
fulfills
hexogen
quadc
sciarr
clouding
phillip
margins
evolving
reinforcing
lucado
niacin
rabbits
tumblers
backdrops
monopoly
crowded
swordfish
skiing
prescribe
demanding
subtitle
tuft
tuppence
tilting
hawks
soybeans
exaggerating
outlast
intentional
intentionally
actresses
reluctantly
promotional
dwar
##check
imprint
intermitt
sneak
restricted
digitizer
observation
dunge
fussing
klein
pirates
rosie
engraved
manipulation
sacrific
acquire
acquired
resonate
prettiest
snags
determining
disturbed
enhancement
7506
rinsed
siph
academy
glucose
passwords
malfunctioned
malfunctioning
journalist
merchant
deodorizer
cassie
cassia
cassette
gimmicks
gimmicky
rags
tigweld
tumble
yields
threatening
isolated
inevitably
reapply
democracy
crosman
refreshed
distinctive
judgement
dyson
dysfunction
mesquite
veteran
woolite
thirteen
inventory
rejected
degradation
coordination
wrestle
earns
reproduction
diminish
diminishing
unclear
chamberlain
pakage
pivots
vampire
vampires
propellers
exfoliating
congress
spartan
nostalgia
overheated
overheating
contracts
confirmation
implemented
bdp
bf4
dongles
prisoners
chiropract
deployment
leapfrog
muddler
recommened
safest
inconsist
surpassed
snuggle
cuddle
caterpill
fibers
mdr
rudimentary
rhyth
##burger
haunted
chinat
blinking
condensation
renovo
coworker
cylind
lullaby
wwii
exchanging
accumulated
infections
deliberate
apologize
squishy
crimping
basting
cavity
dummies
glycol
juggling
katie
kangaroo
nauseous
ought
sansa
sceptical
##wyv
brigadier
shavers
bogus
disadvantage
disadvantages
residential
deformed
embrace
negotiation
coordinates
interpretation
bipod
korea
kensington
nvidia
russell
##keeping
proportion
dexterity
splend
trolley
enlightening
overclock
tekton
corporation
fancier
horrific
temptations
hygienic
megapixels
gourmet
hudson
kabuki
pesky
pissed
tissue
xxl
yahoo
bridal
afghanistan
sontaran
cursor
salvage
blemishes
imaginable
succeeded
migraines
alkaline
550d
domestic
gillette
vaseline
wikipedia
thyroid
hahaha
bragging
whammy
soothe
spindle
grammar
conservative
earplugs
snooze
contradict
peripheral
eyepiece
preservatives
sunshine
invoice
respirator
penetrate
wednesday
rottweiler
asthma
licensed
executive
dakota
denser
gussets
mafia
yangtze
zirconia
inappropriate
hammers
sullivan
outperf
abundance
gracias
applaud
gamecube
acclaimed
indirectly
orignal
embellish
disconcerting
insufficient
bandwidth
commuter
patrick
hypoall
tarnished
trademark
ravensburger
synchron
dissappointed
baofeng
kleenex
schnauzer
inadequate
ailments
ariely
dusk
dairy
elixir
hometown
houston
jansport
lumbar
nuskin
pavement
salsa
tundra
tambour
vanguard
wreath
thursday
inadvertently
inequality
beverages
notepad
shabby
shahrukh
meguiar
amaretto
justckem
##unciation
unlisted
flixster
flannel
manfrotto
rogaine
matricom
sluggish
switzerland
farberware
syndrome
superglue
kindergart
inflexible
autofocus
bankruptcy
biodegradable
sciarrino
1d
1q
1k
1bl
230
3v
380
375
43
4mm
5c
5d
5w
6mm
7year
850
aas
ale
amend
aps
aerial
aural
bp
bou
bif
bff
bour
bday
berg
bins
ct
c2
cay
cir
cout
cens
cint
celt
caj
capped
caf
coop
dh
d7
dect
deri
dave
dating
dix
dips
dway
dah
dane
dipped
dances
daun
eh
ech
ety
eons
etern
egy
fp
f4
fis
fable
fain
fame
fuses
f150
fonts
fathers
gw
ges
gis
gan
gut
gay
gul
giz
gown
gmo
gmail
hv
hk
h7
hust
hight
hil
hig
hite
hires
hunk
hca
hedge
iq
ire
ips
idle
iptv
jl
jit
jere
jus
jason
jugs
jolt
javas
kg
ka
kon
kate
kip
kyle
kvm
lle
lur
lain
lud
lte
lures
lys
lung
lava
m6
m1
mack
mast
mim
meds
mma
mashing
maze
nf
ner
nom
nir
nag
nerf
nix
nations
nude
nfc
niox
nerves
nws
oats
pn
pis
pse
pall
pter
pag
pity
pne
parch
pik
piles
pvp
qt
q10
rs
rt
rit
rally
rome
ruff
rider
rape
rising
rgb
rita
ruled
rerun
sv
ses
sis
sar
sid
sought
sigh
sown
sire
sings
sbs
siding
sipping
tg
tc
tant
tds
tugged
tapped
tensions
tinker
uh
upping
uhf
va
ves
vand
vase
vign
vene
viva
vader
wm
wim
wicks
xyl
yu
yel
yak
yup
yank
zs
zy
zing
zapped
##md
##mq
##mat
##mith
##mur
##mos
##mans
##max
##math
##mins
##mination
##matic
##mhz
##uge
##sq
##sed
##sion
##some
##sier
##ike
##iene
##nx
##nit
##nce
##nia
##gi
##g0
##gk
##g8
##g2
##gut
##good
##gus
##gum
##gles
##gated
##gosaurus
##greg
##eck
##eff
##r3
##rad
##rag
##rays
##raw
##rations
##rling
##ralled
##ye
##yf
##you
##yon
##yave
##years
##oir
##olling
##ography
##tite
##talk
##tale
##tlet
##tional
##tler
##taking
##tzer
##td3
##cu
##c3
##cid
##city
##card
##cous
##crow
##cotch
##hm
##hq
##hat
##hes
##hound
##hake
##have
##hang
##hrs
##a2
##aire
##dlers
##0w
##wt
##wide
##walks
##fu
##fg
##fq
##fk
##f5
##f9
##fig
##felt
##fying
##fms
##factory
##la
##lj
##lon
##lord
##lod
##lux
##pi
##px
##page
##pire
##pread
##pax
##pins
##papers
##prene
##4s
##q3
##b5
##b9
##ben
##bul
##bound
##bug
##bbs
##bones
##bial
##bolt
##kia
##6w
##1e
##1c
##54
##58
##550
##xa
##x6
##xim
##xell
##x50
##x300
##8h
##8k
##850
##zex
##zheim
##97
##3d
##2p
##jm
##je
##jorn
thump
theor
thefr
##erant
##inos
##inction
##inarily
##inarian
##ndane
##orus
##orgia
##atin
##atom
##atur
##atical
##atement
##atani
ityou
##llant
##itings
##itals
##itants
##rele
##reens
##repr
##asa
##asis
##enol
##enne
##enoid
##aru
##around
##arters
##arovs
##anormal
islam
##lement
##legg
##oming
##omnia
##otta
##otches
##otected
ineff
thistle
##utic
##utical
##utors
##vety
onkyo
forks
fortress
reth
rebe
reatt
reek
reyn
hake
haves
hamb
##eta
##eting
##etened
##ethy
##sea
##seling
brood
bros
braces
br30
braun
##ctr
##ctor
##ctic
##ctuary
##ghs
##sto
##stre
##sten
myr
myri
##alg
##oost
whol
whine
whipped
stu
stk
stair
stee
stalk
stages
stih
stuh
prax
prized
prada
##ithik
##allows
##aya
wast
waster
wasabi
wealthy
butters
butcher
notably
notification
##adna
##aderm
##adrene
sopr
soggy
##enter
##entive
##entials
lied
lique
##kees
ascend
shack
shure
sheds
shards
shaded
shrim
shaun
profic
proxim
##iram
##irade
##irling
verified
semin
seventh
dox
doable
wort
##illion
chis
chess
chipp
chute
chaf
chases
chilly
chops
hehe
neater
nels
nemes
loch
loath
lovable
alf
altered
albert
alaska
alzheim
canine
canning
canola
orph
orgin
##oodles
##agrance
dele
deem
dept
decks
decept
debit
demel
atra
ally
alley
pls
plier
pledge
##acky
##ilm
##ilk
##ilight
##ilus
##ilated
##ilian
fris
fram
framed
fryer
fringe
likeable
workings
me2
mech
memb
##ulo
##ulity
amt
amc
amd
amid
ammo
amuse
amino
amanda
amethy
quint
quits
quibble
##apy
coon
coke
cops
cobal
coasters
justified
justification
goodies
##ante
outward
outright
outgrow
upc
##astrous
##imeters
##ifix
cone
convey
conference
##elaces
##eloop
usefull
lookin
lookout
##onella
bumble
bully
bugged
bugging
feld
fenders
abn
abusing
abusive
abroad
willow
william
moore
moss
moko
wells
wellbites
spd
spade
tres
trau
trace
trav
trump
trolling
##unking
##igger
tier
nodd
nootrop
nokia
##amello
recur
recruit
reclining
recuper
leapp
leery
lefty
##heres
enr
ench
enab
enters
eneloop
##itely
compose
composed
someplace
gosp
adler
admin
adobe
aft
mum
mundane
unapp
unaw
unco
unseen
unrespons
##abase
##abones
##aceous
##aceutical
##istical
##istocr
scos
scores
scored
scatter
scoping
scattered
perfor
smack
smiling
smidge
overjoy
overlay
overdone
donate
donated
purr
purified
recommed
aftermath
armo
arca
aristocr
clad
clam
clann
clover
offend
##inking
##inkle
preamps
prehist
whichever
##avox
flushing
flapper
flanges
flathead
backst
bloss
blog
bliss
blinks
blazing
boke
knitting
gotham
lightening
purchaser
##rost
##roach
discri
dismiss
dislod
disastrous
##iper
##ipse
thingy
rover
roaster
kevin
veins
grades
gracious
graphing
workspace
intol
twilight
teh
teva
straining
agric
poign
yearly
playful
playtime
playlist
playtex
desmond
saute
savers
##derm
instinct
##inte
handbook
handlers
handhold
cheating
hoci
matts
matted
baggy
carved
carving
carbo
carafe
caramello
##acch
##acus
##aculate
##assic
stills
##plant
##tra
##udes
##udent
##udge
trif
triangle
colic
columb
colony
awsome
##erian
appe
applet
apparat
drople
drunk
monot
newf
##ullet
coloration
helm
heli
crt
crave
crows
craves
cravings
glen
glues
glaring
charles
slug
slime
slakey
intoxic
bookmark
##irection
helper
hissing
resur
resil
resell
reserve
camar
camlock
cambridge
defici
deficit
bitch
expects
downhill
spelling
speech
peasy
peaks
pebble
pecul
guer
funniest
##pering
daybed
pretzel
##qua
##qued
##quently
wrapper
writings
fod
foster
simm
addons
##ugal
##ptive
heading
headpiece
headstock
decals
decline
decaf
declined
decipher
amazonb
##lia
##liers
##liest
cheapo
##dynam
sway
swarm
swoll
swarovs
cuter
inclement
exceeding
##peak
suppliers
boxer
definit
comforting
waterway
watermel
##gettable
shoved
shoving
shoelaces
##lessness
surges
serge
cleanable
duress
##tek
replied
retina
underest
skating
giveaway
topaz
finesse
interven
interlaced
quickest
protests
realm
realism
installations
##ossed
consol
pleated
runny
104
107
##uffs
homeless
protections
##dex
earcups
##ualdo
warlegg
atten
couches
powerhouse
powerpax
softener
supervision
effic
regener
##weller
##weetened
fastening
extre
elon
elvis
elaine
eligible
breeds
breeding
remarks
205
snot
snuff
snee
snips
snapping
reasoning
placebo
tying
tyler
wonky
factors
speakon
##eady
styl
styli
styled
##ertain
kindly
kindness
haired
costum
personnel
##ggers
waa
wafer
completes
mustang
freeing
toolbox
metro
meticulous
##cessfully
dealers
shipper
wishlist
##oga
airing
airgun
corned
modded
modulation
##oding
##otech
probate
probability
picker
pickle
smear
valentine
origami
##pressed
shortest
shortbread
emitted
##onti
absolut
telltale
babysoft
disco
redbull
barber
barring
barrett
barbies
steals
sawyer
##apeutic
edible
portfolio
portrays
refin
refrid
reflux
avant
greedy
b00l
b00it
b00co
b00fr
descriptive
glassware
genie
perid
perplex
autistic
autumn
listens
curv
curt
curler
eyre
##negut
terr
terrain
payment
payroll
paypal
hdr
winder
windtalk
relation
relatable
choke
chopper
choppy
planing
planter
mains
customized
thickest
directs
directee
##ricting
##ricane
keyhole
scraps
versa
learnt
constit
constip
smoothed
functionally
insoles
insomnia
classify
puller
pullups
considerations
satisfies
sprint
sprung
bandana
repack
repel
subse
subaru
markets
pastry
audition
solids
certific
swells
panick
panning
sunk
sunway
sunken
sunburn
studios
obedi
##ergenic
##athan
multif
multivit
attache
excurs
excru
interests
##nedy
condiment
schl
schol
guessed
guesswork
volum
numer
christie
macho
machining
sitter
##rette
restoration
woodsy
commander
garter
hugely
ringer
ringing
visors
plugin
holo
fantas
confined
confidently
confronts
imported
seattlet
audiobook
grim
grief
bodyguard
messaging
positives
courtes
potting
potency
silh
midway
midrange
distant
disturb
walkman
zipping
ira
iris
irrig
irrele
similarities
improv
assim
assists
assurance
digress
armstr
profiles
continental
elected
paperback
lockable
locktite
5050
mores
moran
moral
morley
passports
labelled
kitchens
foldable
calvin
honored
doorkn
patter
patina
collected
collectors
louis
louvers
##resser
immort
immense
immaculate
catledge
catalog
promo
suggesting
selleck
footstep
polka
announ
casino
casca
dollhouse
drawings
naturals
##aham
conditioned
sentences
frees
humble
hummus
2016
lenov
leaky
2004
informing
##uccessfully
unfortun
dropouts
viewpoint
presentable
loosely
lengthen
vacc
##tedly
dressier
ridd
ridic
ridge
advances
dropp
slowed
engages
futur
rubbermaid
stoked
stokes
##ceptions
##ceptible
tong
numbered
processors
##isingly
sweeter
sweetheart
professor
##pperware
evo
evidently
vox
fleets
nutrib
artis
namely
##undai
##ridge
penn
warranties
1950
1977
fabrication
examined
examination
eyesight
1100
globe
gripes
balt
4050
dimly
dimmed
dimmers
lugging
annoys
counted
##oubtedly
18mm
18650
dino
heartbre
heartfelt
interestingly
forwarding
##ycles
gpu
fury
separates
separators
paras
parach
par38
paranormal
walter
miranda
miriam
sealer
professionalism
##ronics
trackpad
25th
2500
hurricane
maxwell
pleases
counseling
sanding
fatal
browning
buckets
buckled
shuttle
yellowed
rancid
sorting
labeler
flexes
flexadrene
wetter
##iko
stroke
strokes
strobes
encry
pillowcase
hyper
hyundai
nailed
chocolates
mechanically
dispatched
agenda
##yland
##older
minimizing
literal
limiting
splashing
telecaster
crossbow
weathered
winterha
towers
logical
ironed
ironman
strengths
strengthen
titled
traded
defected
vacuums
fashions
velvety
##bye
counterp
misplace
misrepr
bothering
##obic
theroux
therapeutic
suspected
susceptible
automated
automotive
powdery
recharges
richness
richmond
commenting
1750
bendable
resolve
resolutions
snowboard
narc
offerings
hesitated
garde
zooms
epique
clarks
claria
surviv
massaging
massager
rotors
rotten
competitions
peeled
##shell
flowing
skew
skewer
credits
racket
taping
trashy
trashed
crisper
magnavox
stitches
synced
indicating
indicators
lawks
lawsuit
actively
snugness
fishy
cushy
instrumental
viola
billy
billion
grabs
empire
undes
undoubtedly
slimming
booty
burr
burp
pending
critter
critique
reminders
005
hunted
obsessive
observed
obsession
##ostar
amped
clockwise
relaxes
identity
squeegee
surroundcast
rusting
rustoleum
bellows
molding
reporting
achy
barsh
torx
torani
significance
70s
70d
##forms
liquor
aluminium
lands
##1125
lifter
lifep
scares
gaudy
recognizing
recognizable
prompted
statues
extenders
communicated
dreambaby
porous
##inois
welded
accountant
emptying
talents
##cracker
ripoff
townhouse
lumiy
routines
tubs
unsett
unsweetened
unsuccessfully
flavanoid
rodent
rodents
lunches
lipoic
nikk
titleist
turf
turtles
unbreak
1080i
housed
tiemp
limitation
robes
robots
robbery
fogger
responses
moisturizes
2700k
georgia
ziplock
ziploc
##worked
##worthy
breezy
tangling
gasoline
looser
loosening
ghirade
males
spreading
arrows
photographic
duvet
dyes
miy
milder
pathfinder
railing
railroad
sdhc
stunned
waxed
rivers
shirley
popularity
bouncy
bouncer
##olescence
daring
rattling
senator
unfair
fluor
blurays
subjects
absorbant
rigors
##mg9
nexxus
drags
formatting
formatted
hydrate
stupidity
bbc
mpg
mp4
introduces
introductions
slotted
escutche
boosted
hubs
picolin
muscular
assumptions
sanctuary
wildlife
halluc
hallmark
unusually
microwaved
feared
crucial
acids
flags
screenshot
extracts
transported
creed
jambox
##aiian
froggy
expresso
psycho
264
astron
climbed
floral
roasts
dennis
tailored
tailgate
villages
libraries
polymer
philipp
discussions
cultures
fascination
igniter
revived
disappearing
calculus
communications
axis
##iosity
buffing
buffers
buffering
buffett
uncl
diffusion
diffusers
brews
brewer
jarring
stern
privile
demons
bulkiness
couscous
insecure
stabiliser
stabilizers
franklin
dispenses
2137
29975
octop
pitched
pitching
peeing
falsely
cyan
renuv
scrubs
suspects
adhesives
lucia
luigi
reveiw
clippings
paintings
polaris
polarizer
articulating
kennedy
venting
venture
rebate
shifted
summar
bundled
spaetz
clubs
clamped
officers
soooooo
soooooooo
oxide
cluttered
premature
salesman
accompanies
accompaniment
fiberglass
spirituality
davidson
eighteen
merits
flickering
phenrx
collapsing
scrapbook
westerns
##fruit
hamsters
afternoons
settling
saturation
cinematic
pilates
pilots
tiniest
wounds
transmitters
narrator
categor
unreasonable
intrigue
familia
disconnecting
translated
85mm
athe
fifa
pita
##offs
docking
champion
recovered
recovering
legends
untang
scuffing
highlighters
respects
respectable
receipts
distracted
distractions
circumference
ghostly
damping
masking
anchored
ambience
tweaks
innovations
huluplus
aqua
pulitzer
saga
##ophen
##ophone
##ophical
expansive
smudging
skullette
marineland
horsepower
unfolded
wobbling
dubbing
malls
mallet
reboots
backlighting
boombox
swallowing
occurrence
berries
napkins
cancelling
hosted
hosting
transformers
risky
treads
tutorials
halogen
seiki
recomended
screamer
employs
employer
revealing
fiddling
gaba
koh
victim
beeps
unsteady
texts
understatement
remarkably
repetition
obstruction
motorcycles
cumbria
dji
teddy
shatter
shattering
hexagon
quadrant
cockpit
sciences
clouds
intending
cricket
marginally
evolve
nuances
renting
rifles
tsuk
selen
seltzer
unscr
crayon
retained
retainers
celebrate
groomer
tupperware
hawaiian
dearly
clinic
diabetics
attendant
b00h7j
terminology
assignment
advertisements
cartoonish
arranged
puncture
festive
##aurus
hacking
ornamental
imprudent
tribute
monogram
elevated
eyeliner
cookbooks
artificially
1966
1965
ceremonies
ceremonial
binocular
cfh
duncan
jimmy
klean
piggy
whims
dosnt
resonant
snagged
b009p
alienware
arthritic
caleb
duds
pb2
pimple
stumbling
procedures
suppression
shoveling
obtained
christianity
180s
enthusiasts
symptom
8x8
funds
fundamental
luminous
xsories
##ographic
contribute
consciousness
coupler
exclusive
possesses
immersed
immersive
1982
gorgosaurus
hrithik
jigs
sedan
veterinarian
thirst
stimulation
shinier
degraded
conceal
resorting
fasteners
restarting
diminished
sandalwood
220v
lp4
nsi
rooster
##rrrr
rendered
pronunciation
propeller
dolby
sugary
spartaco
spartacus
unzipped
overheat
dismal
dismant
dismayed
reservation
reservoir
incompet
diablo
b00cxy
participating
controversy
240hz
publishing
htct260
submarine
bdt
fmtd3
gags
nespresso
zenrx
##yyyy
chirping
mehr
unprotected
exploited
grapefruit
intimacy
pollen
safari
surpasses
chronicles
preschooler
restaurants
mandoline
papaya
thunderbolt
chaise
mexican
quilted
abdomen
traits
tra70
gratis
pharmacy
pharmaceutical
contoured
chromatic
3000k
renovating
emphasize
culinary
lingers
lingering
puddles
torture
##cends
aspiring
exchanged
cognition
cognitive
pursuing
swaddlers
sympathy
infection
avocados
b00dc7
perceived
conducting
dissipated
crimped
restrictions
paragraphs
boutique
hcf
kittens
karen
kareem
mutant
nasal
pertaining
pertinent
sceptre
##warming
bradley
stowaway
shaq
reconst
adderall
carniv
phrase
coupons
b00smb
reload
distressed
negotiate
escaped
ergonomically
##1111111111111111
consequently
consequences
crocheting
acknowled
bipolar
cooperative
gnc
horton
hortons
hmmm
loner
nuby
russel
wicked
revelations
sulfate
abandoned
splenda
unrave
unravel
unboxed
crusades
charlie
slammed
camelback
emptied
bluerigger
entreprene
sweeteners
19991125
megapixel
excelente
baffled
catholic
database
icons
nautilus
ripper
vaguely
yankee
##vfd
isaac
bruises
brooklyn
stinging
orthotics
grommet
grommets
sailors
handicapped
sketchy
discarded
assessment
devastated
devoured
firefight
castlevania
inhabitants
atlanta
atlantis
sustained
aisle
bomber
cnor
eclipse
gouyave
ginseng
hormone
kyoto
moths
oeuf
ttl
tacos
yikes
forecaster
reverb
reefs
beetles
quilting
coppola
unmatched
scandalous
implied
appointment
##onditioned
##mobile
pellet
retirement
proteins
consultant
disclosure
insignia
repurchase
multitool
visconti
fingernail
antiquities
lifelong
facilitate
foolishly
inquiries
civilization
channelled
dolphins
congratulations
dermatologist
dizzy
hiccup
jagged
oyster
pajamas
sakatani
taylor
tattoo
vonnegut
wubbles
xanrx
##iatrist
regrowth
hazelnut
bravo
stalion
chelsea
amperage
spigen
unnoticed
unforgettable
uninstalled
overdrive
bobbins
excellence
camelbak
emulator
deteriorated
insisted
depicts
fingertips
laundered
miraculous
idiot
opponents
misplaced
estroven
stereotype
precaution
oxygen
julienne
raccoon
sympathetic
dictionary
hotspot
hathaway
mazes
mishand
mammals
nuclear
pampers
tiresome
##kqog
##organized
priestly
seaweed
chrys
alleviate
plagued
conoco
enforcement
everlasting
scouring
teacup
soundblaster
crucifix
hairdresser
correlation
bargains
curcumin
terrestris
sweatshirt
accessorize
mediasource
templates
nutritious
artifacts
bloodshot
palmitate
intermittent
dysfunctional
chiropractor
caterpillar
rhythm
chinatown
cylinders
splendid
outperforms
hypoallergenic
kindergarten
circus
cintiq
celtic
dwayne
daunting
echostar
etym
egypt
fischer
gesualdo
hitec
ireland
jeremy
javascript
llego
lainey
nixxell
nioxin
nwsource
pisector
pseud
pikmin
sesame
##hesive
thefragrance
ineffect
hakeem
hambur
myriad
staircase
steele
stihl
stuhrling
praxis
butterscotch
shrimps
proficient
proximity
seminars
nelson
nemesis
alzheimer
demelza
membrane
amethyst
cobalt
leappad
gospel
unaware
unresponsive
scosche
overjoyed
armoire
clannad
prehistoric
agricult
poignant
hocivfd
carbohyd
apparatus
droplets
intoxicating
peculiar
swollen
swarovski
watermelon
warleggan
windtalkers
excursions
excruciating
seattletimes
courtesy
irrelevant
armstrong
footsteps
lenovo
nutribullet
winterhaven
misrepres
unsettling
unbreakable
ghiradelli
escutcheon
picolinate
213733
2997567
renuvaderm
spaetzle
tsukune
b00cxykqog
thefragrancefactory
04
08
1n
1by
1oz
1ba
1dq
2g
260
290
2ghz
3mm
4n
4d
440
4oz
5a
520
5yr
5yrs
5d3
6d
69
640
7k
76
71
73
7th
770
8g
8in
8mm
8gb
94
96
91
93
a9
aar
aide
aav
akin
b4
b1
b2
bge
bick
bich
baz
bbs
billed
b12
boman
binky
bnc
cs
cv
cct
coo
cind
cures
cbs
cren
caster
cities
cumin
css
caching
cilant
dt
d3
das
dion
dill
dul
dile
dac
dings
dio
diced
drench
d90
d100
dora
d300
diox
darts
e8
ery
elling
eternal
e12
fq
fim
fum
fict
fren
fcc
fumes
feline
fumble
gg
g3
gon
gle
gim
gand
gink
gren
gals
g20
g11
gators
gyr
g16
gshock
hl
h2
han
hast
hire
hord
hte
hating
hues
hugg
hosed
hugged
hunch
h11
hilly
h100
hoops
huffle
iow
iod
ibox
ionic
js
jn
jc
jj
joo
jake
jets
jung
jury
kw
kb
kre
kom
kal
kant
kel
kak
kso
kend
kaw
kush
kung
koz
kern
lv
ld
lx
l8
lent
litt
lps
laughter
lath
lense
lyc
loma
lyr
lathers
lumpy
lanka
lelo
mw
m8
mould
mam
miz
mink
mage
mens
mars
mutes
mister
mills
mitten
munch
mcd
merry
mfr
mfc
mbp
mfg
ness
nam
nore
null
naught
nuff
naps
nah
nero
nasc
nancy
nibble
nalg
oom
oal
ooo
oli
ody
owing
oops
ostr
ocher
oml
omitted
pw
pll
pess
pore
pitt
pint
puck
pits
posed
pinter
pung
pyc
piled
pyr
pamel
poul
pnut
pomer
p85
qsc
qwer
qcell
rp
rar
ric
rook
rant
rach
rother
rapp
roth
rah
ratic
riff
ramps
roland
rationally
sg
s1
sally
sri
sap
sage
seri
sift
sash
siss
sacks
ssc
s70
sowed
senco
tf
t5
tou
tout
tand
tame
tus
tide
teri
tans
tps
taut
tents
tuff
tung
tended
tiring
taff
tada
taco
taurus
ug
uke
uber
uvern
uverse
vu
vw
voy
vod
vons
vital
vault
vhf
vpn
vapor
wb
wk
wan
wie
wart
wry
wets
wwe
wines
wether
wishing
waving
wih
wpa
wagon
xf
x8
x2
xxx
x260
yor
yach
zi
zoo
zool
zaps
zek
zucker
zoodles
##mu
##m0
##mx
##mest
##mere
##mite
##mens
##mits
##mund
##meter
##mallow
##morrow
##muffs
##u4
##uz
##uest
##uite
##uously
##uka
##s0
##sure
##ssey
##iu
##iop
##iour
##iates
##iotic
##nl
##n8
##nor
##nir
##nant
##nest
##name
##nate
##nav
##nastic
##nical
##gw
##gq
##g7
##gor
##gur
##gri
##gable
##gau
##gang
##gical
##gold
##giant
##geline
##vr
##vd
##vb
##v1
##vx
##vion
##vol
##eh
##eing
##eas
##eys
##eller
##eering
##rt
##r4
##r5
##rare
##rail
##ross
##rative
##raft
##rison
##r70
##yards
##oj
##oin
##oise
##ogr
##obby
##ti
##tn
##tz
##tly
##tal
##tel
##tem
##tage
##times
##cen
##cir
##cans
##cents
##cup
##cams
##caps
##cott
##hem
##hift
##hog
##hots
##h12
##ae
##a7
##ais
##dj
##due
##dens
##duc
##dogs
##0y
##03
##wd
##w8
##west
##wee
##watt
##worms
##fi
##fd
##fw
##f7
##fill
##fun
##fting
##frid
##fishing
##lg
##lw
##l7
##lan
##lst
##lity
##lie
##link
##lical
##lows
##lco
##loud
##lantic
##p0
##pb
##pes
##pse
##pone
##pak
##pend
##pool
##puff
##pod
##preh
##person
##pending
##pentine
##41
##4me
##430
##qa
##qk
##bk
##bx
##bat
##bid
##bel
##best
##bour
##bian
##bird
##bils
##b76
##busters
##bjorn
##kl
##kj
##kines
##kah
##kane
##6f
##61
##6x
##6j
##630
##1n
##5s
##5g
##5z
##5j
##x7
##x2
##xious
##x30
##x14
##xistent
##79
##750
##zp
##zia
##9p
##3hh
##2g
##2k
##26
##21
##280
##jory
##☆☆
tha
thaw
thiel
thsi
theories
theology
##erth
##erty
##erance
##erably
##iners
##inches
##infeld
##ndation
##oral
##orice
##orious
##orah
##orney
##attract
##atrol
##atlantic
##oup
##ouli
##ouette
tos
tod
toen
tont
togg
toms
todo
topeak
##edies
##edtler
##esa
##esional
##inging
##llation
##itas
##itmo
##itance
##itled
##itates
##itron
##itarian
##onent
##onics
##rend
##rell
##asi
##asper
##asics
##asco
##isa
##isp
##enan
##enian
##arth
##arna
##ariously
##anol
##anks
##anian
##ancho
ist
isab
ismo
##leaf
##leaning
##omo
##omite
##omans
##otonic
inop
ingest
##icut
##icum
##icose
##icles
##icular
##ications
##vell
ontime
onstage
forem
forear
forew
forged
rei
rex
reall
retr
reams
rehe
reasse
retelling
haze
hazy
##eti
##etr
##etly
##etry
##etto
##etec
##selling
broo
brite
brink
braid
##ctite
##ctress
##ghgh
##lytes
##sth
##stic
##stood
##start
##state
##steen
myth
mylar
beg
beck
beater
beards
beading
beaver
begged
##alon
##alis
##alter
##alfa
##aligned
##oood
whoo
whew
whiff
wholes
stich
stance
stump
stashed
stutter
stalks
##chic
##chem
##chase
prun
priy
pruning
##oward
##allas
##allibility
##alluma
##ayer
##idi
##idas
##idian
##urity
##urbed
##urai
##vering
##veratrol
##mectress
weaving
weaver
butch
butts
butane
##adel
##adia
##adian
##aderie
sos
soym
sohel
##entia
liven
lilly
##tery
asw
aslo
anger
sham
shuff
shaves
shavings
shifter
shenan
##that
##thood
##thought
##thane
proam
proving
procr
##irls
vero
verity
verbal
sem
seiz
seyf
seinfeld
doa
##illating
chu
chal
chow
chast
chim
chol
chass
chapped
chiff
chalks
heed
heist
heather
heals
hepa
neil
combs
comedic
##ooky
##rive
##ribed
exe
exo
exub
exert
lod
loaves
loctite
##ection
##ectives
als
alice
alab
alittle
algor
canisters
canyon
orde
oranges
##agg
##essi
##essential
##amous
##amax
##orex
dement
deff
delect
deeds
ata
atroc
allan
allig
plo
plent
##ilo
##iless
frick
frys
frog
frances
suds
sully
suzu
workforce
workben
mee
me1
melo
##ulates
##ulina
##ulthood
amu
amity
ameda
usm
usd
usability
quen
quarters
##aping
##apolis
coil
coars
cope
coca
coiled
cohesive
justin
goodread
goodbye
##uctory
##antee
##antino
outst
outback
upbeat
uplifting
##imore
##imations
##imited
##imental
##imedia
##outwe
##elity
##elaine
##ersed
##estal
##aka
##akiness
##ounds
##ounding
bugle
bureau
productions
hash
hasnt
aback
abhor
abalone
abbey
mo2
mole
mock
mocc
moses
##eming
##emble
spf
spam
spain
spear
spans
spons
spines
spitting
spoof
spades
sperm
spouts
spheres
##anders
##andgiant
trit
tran
troy
trues
##unte
##unken
##igm
##igo
##igans
thanked
tiers
##artic
noct
noggin
noxious
##ardia
##opath
##opened
##olved
##olta
recons
recesses
reconditioned
##usd
##usions
leo
levers
leisure
enco
enroll
enzyme
timeliness
timekeeping
##ongous
everest
compilation
gover
goss
goja
goggle
adams
adopter
adverts
adidas
adulthood
##ittier
whatnot
##ickers
##actly
##activity
aflo
afoot
aficion
##uret
##urethane
##izant
mumm
mumble
mueller
unle
unid
unity
unqu
unplay
unifying
unatt
unstr
unnatural
unrolling
unattract
##abe
##abor
##abar
##abest
##abridge
##isty
##istat
##istically
scree
scors
scaven
scrolling
scb3
perfom
##osures
##osuke
##oscope
overt
overchar
overflow
overstuff
overhang
overworked
purh
purpl
purify
purdue
##ichi
niceesh
afterthought
ark
arise
arises
arbit
arches
clich
clint
clings
clash
clump
clunking
offbeat
prey
prel
preview
prepped
preload
prejud
##avi
##avin
##avag
##avable
##azi
flown
flax
flapped
flicks
flared
flares
flutter
backboard
backache
backseat
backordered
blas
blass
blup
blush
blob
blamed
boon
boar
boating
bobs
bode
bogged
boils
bollywood
boiler
boasts
knacks
kneel
knifes
lighten
##mented
##mental
bett
##rose
##roller
##roads
disable
disabilities
disorders
disorganized
mana
manif
mania
mangan
mankind
roar
rogue
roaming
kelly
vey
vein
gry
grail
grave
grotes
graves
grumble
grapple
grittier
highland
##oused
##ousers
imper
impe
implic
imgur
##ensit
##enson
##ensible
worksheets
itsy
amazes
amazement
##ryl
##rysafe
intex
twine
tween
twirl
tec
tees
strut
stride
strides
strains
strava
struts
agile
agave
agath
polly
pointers
playroom
playboy
playlists
playpen
desiring
sae
sails
safty
insta
longboard
longboards
##owners
##intment
##intosh
handing
handker
cheek
hock
hodge
hobie
mating
maturity
bagel
baggies
putty
putts
putrid
carve
carrie
caralluma
##acord
##assed
difer
cleaver
##007
##pling
##plug
##plants
trike
triang
triath
trims
tribes
triangular
trixy
trivial
triggers
herc
cola
colin
awa
awfully
##ntlet
wayne
append
phon
phony
phaser
drows
drafting
drunken
monet
monter
monso
monro
monarch
monuments
monstr
newbies
##osecu
##osemite
thinkpad
seeks
soundcard
helen
helmets
crv
crann
craze
crested
cricut
acro
acorn
acura
acurate
glam
gliders
glaze
glamor
slather
slush
slits
slacks
slanted
slapping
slaver
sliders
slurp
bestselling
seeming
throught
thrones
helpfull
orderd
resign
residence
resveratrol
##fta
camry
differing
defend
deficient
defender
defrost
bitsy
bitco
downright
finders
##move
specials
peice
pecan
guage
guided
battered
tryst
wrath
foes
foams
fogged
##kshire
simil
simulation
simulated
additive
addario
addicting
##ugreek
##ptic
headings
headline
hardback
deco
decote
decib
decribed
amazons
contest
cheapies
swed
swore
swirl
swallows
cutesy
mines
minced
mincer
ministry
minnes
farms
incar
incase
incidents
##ormat
excels
sayin
sayings
mayo
mayan
mayonna
startup
##ordance
foundations
##ansas
surefire
throughput
defines
definitions
joking
joey
##phia
waterpro
##ubs
##ubi
differential
differentiate
makeshift
survey
surreal
surpri
surgical
seren
serene
serbags
serrations
cleanliness
storacell
##atherapy
designation
accross
##psi
##grades
##graphing
##ango
cameo
roommates
replicate
wherein
retreat
retread
underlay
undercover
undertones
undertone
skilled
soni
sonata
topical
##iera
##boks
##bofl
##gins
fines
intercept
interval
intersp
interlining
intersection
belasco
giants
giardia
realities
filer
##iography
imposing
runners
diaph
kidney
kidnap
syner
sidewalks
103
102
10lbs
beauties
llc
homeowner
homeplug
##ctioned
esque
lessen
videosecu
doggy
earlo
earpiece
earpieces
earliest
earmuffs
weightlifting
solvent
##awk
warp
warner
warwick
attorney
complicating
complications
softly
softens
softgel
superbly
supervis
superstar
screened
inclination
inclusion
##weave
blackened
dripped
dripper
elim
elton
elaps
elusive
remington
20th
persu
persist
snes
snail
snipp
snappy
sna4
snazzy
snickers
factual
kinder
hairband
extravag
videog
babe
babes
babys
babmp
tablecloth
tastier
tasteless
arriving
walled
cardigan
adjectives
##ivated
##wheat
capcom
musubi
carryon
collie
cooled
coolpix
letdown
##ogue
slew
slend
##cription
stickier
stickler
infur
infallibility
infamous
skinned
airs
airbed
airsoft
airdeck
modules
modicum
indisting
pickguard
valent
valued
carefull
pocked
##idering
##ibles
emblem
##ontroll
babybjorn
origins
barr
barrage
steves
stella
edging
edgy
edmont
ported
satiny
testament
refusing
showcase
showalter
basyx
##atsu
favorable
greed
greeting
callers
callaways
friendships
optic
decidedly
b00u
b00r
b00k
b00id
b00ss
b00i8
##iah
storytelling
genetic
painfully
##entionally
perme
perry
permit
percus
perimeter
permission
perpend
##cedes
autism
autob
coffin
fanny
fanboy
devicewear
curse
curated
curric
curlers
curiosity
eyesh
##neys
##standard
##issistic
##issima
tervis
teresa
payments
payoff
paycheck
##axter
leatherette
hdx
hd20
relay
relates
choked
choker
thickens
thickened
humectress
keyfolio
ideally
scramble
micros
verses
##ventions
constrain
constricting
frontline
spacebar
smoothy
smoothmove
insides
insulating
insinker
insanity
classier
classified
classmates
pressboard
moveable
darkly
pulley
pulleys
satisfactor
washi
washburn
matchadna
checkout
apoc
repent
reporter
reposition
129
123
12th
subpl
submit
performer
thinly
pastas
auditor
swell
159
15th
panc
panama
padern
obd
obsole
oblig
##version
multimedia
forma
formulation
formulas
transduc
transatlantic
maggie
thanking
excav
featurette
featurettes
conco
concordance
condicion
sleeplessness
schw
schle
schoon
##iette
##ccable
legible
maroon
marlow
marjory
giraffe
varicose
volunte
natto
numb
numark
followers
followup
christine
sitcom
invade
invites
invitation
begining
restful
restroom
bios
biases
garish
garland
garnier
momo
##ificant
visions
visib
visibly
##mium
poorer
techy
entity
30sec
imports
damm
damsel
griot
griots
grizz
bodygold
safeway
availing
courts
modeled
modeling
organisms
movable
mediabridge
disting
distinction
##sylvania
##bedded
##player
walkway
zippy
zippo
irani
irreg
mindless
mindset
hookups
advertises
armitage
armhole
profane
profund
continent
electri
greenworks
pilling
flatly
flatware
hangar
lively
504
passage
flashbacks
lables
horrors
photographing
flavorings
##parable
ipad®
typed
typos
doorway
patrol
collectible
powell
shapewear
motif
motive
motions
motoc
##lox
sensual
practiced
liters
promin
schools
schooling
suggestive
footwear
footprint
polite
annis
annie
casings
naturabest
populated
##ahah
##eningly
affordably
conditioners
sentiment
sentimental
sentrysafe
angius
angela
centip
centric
freud
humic
humongous
occident
lenox
combust
2001
200sx
##ucci
deepest
baseboards
seriousness
speedlight
pounding
yeow
preferably
vacs
correcting
corrections
eyelet
eyelets
eyeball
psc
bushing
dressers
dressings
burnout
campus
campbell
ridden
ridgeline
##br0
advocate
multiply
specialist
salts
saloon
bleeds
futile
attracting
specify
eru
erh
erased
erasing
ernie
tonid
baths
bathrobe
samsungs
manufactures
##bbie
measurable
technicians
##zech
backpackers
stepmother
antif
antics
antlers
antiox
antipers
wwwwork
freshen
freshest
eaters
equals
##comb
##comes
##comic
researcher
miniatures
##umbers
evans
evapor
memorex
leaders
nutcracker
imagery
imaginary
milks
pennies
warrantee
1930
1912
womb
fabricated
examine
##ologists
11n
11th
balances
balacl
40v
40mm
boris
134
1375
mousewheel
annoyances
tuna
##zzies
##zzzz
16x
1633
duties
linco
linoleum
characteristic
streamlight
programing
##colm
18g
185
181s
relegated
spotless
dinos
hearty
petty
peterson
##aftworld
throwaway
authorities
furious
furby
furmin
radical
##hef
eventual
flys
parks
par30
parapher
parano
paracord
14¾
1412
flimsier
miracles
firewood
firewire
vito
centerpiece
puchase
relied
reliant
frustrations
pleasurable
counsel
mediums
bowel
mailer
mailed
sander
sanded
sandra
sandbag
copier
feeds
feedbacks
harv
harper
harbing
harrass
harris
harvey
harx300
harrison
nonexistent
squash
squats
causation
stocks
stockp
stocked
temperpedic
fatale
brownie
brownies
brownish
jeweller
toughness
bucky
buckley
buckwheat
shocker
shutoff
shutdown
macy
macaw
macmur
ranger
rancher
circulating
gunn
dependent
dependability
duster
dusted
dusting
ingrown
prosper
sorta
##kui
doubted
##screens
furnished
rainfor
rainstick
##oids
jewish
jewels
##ikon
##afo
##afire
##iffy
stroll
trickle
approval
pillowcases
hyped
mechanisms
ageing
strenuous
minimally
bonne
castor
splinters
despicable
telekines
chocolatey
crossway
dieting
junkie
##ocative
weatherstri
chewable
hesi
wintertime
logically
logistics
springy
springsteen
wheeled
wheeling
kickst
consisted
irony
ironing
ironic
strengthener
tarantino
trader
medal
medicated
meditative
vitamix
tenacious
timothy
novelist
oppose
norpro
##ymes
electrician
counteract
counterweight
miso
misc
misgu
misgiving
miserably
misaligned
navies
navajo
sorbate
godfather
smoked
smokes
smoothing
##obi
minority
automob
24mm
squeaks
squeaker
squeaky
rechargable
developer
absorber
absorption
buttery
commentaries
docs
alternator
downloadable
voiceovers
plotted
plotwatch
listeners
wining
winona
clicker
melodies
melancho
killings
clarification
slippage
surviving
massac
juicing
juicy
juki
juju
##named
scented
bunched
purebr
routers
##103
deathbird
disappointments
raff
raises
doctr
credentials
trashies
crisps
avoidance
adorned
regretting
magnifier
wiiu
xbox360
sixty
momentum
questioned
primo
priming
carpenter
weirdly
stressing
waistline
laden
ladders
sauna
gymnastic
pedestal
cease
ceased
forgets
empower
stiffness
supplying
surratt
consumes
caption
garbled
stapling
bootle
sweaters
crispness
bury
burger
burden
burdens
este
streak
streaking
antennae
007
cincin
cinching
obsolescence
yogi
##ostic
squeeker
squeezes
squeezed
bellissima
sucky
moldings
mirroring
torped
sectional
suprem
##kinase
internally
internationally
copyright
70mm
##ascular
beyer
fuj
nosefrid
blowers
insertion
boyfriends
mastery
masterlock
plateau
fragr
fragility
fragrant
faults
landlord
romper
romances
romiette
striped
500mg
gauntlet
publix
##center
referencing
prompts
frustratingly
utilities
utilizes
utilitarian
statistical
spinach
spinners
spirulina
##roduct
extendable
targeting
pours
##cross
cakewalk
##dagh
forcecut
involve
carpeting
lumia
lumisc
southern
chipset
unsatisf
unsatisfied
gradual
acceptance
servicing
35lbs
lipophen
grassy
reflected
reflectors
objectively
##gae
emerging
educator
toothy
delightfully
universally
turbo
approachable
diehard
gallop
housings
wigs
robins
robbed
robinson
foglight
greyhound
narrowed
273
geck
geoc
mealworms
benz
benif
bengal
cashmere
sequential
odorless
cripp
plantar
females
cottage
ghoul
ghetto
honeys
honeywell
mala
malcolm
arrest
75ft
facets
faceted
ketone
millimeter
millimeters
olga
samurai
proposed
strawberries
formulaic
ultrafire
duh
duplex
dymo
parked
stunts
impacts
riot
ribofl
innately
brainier
teaming
simplifies
urging
urinal
widened
forgive
forgiven
forgiveness
darth
blurb
maintainer
citrate
patchouli
banks
banner
bananas
gerbils
woken
stacker
conversion
eliminating
hydrates
stupidly
willingly
muffs
introducing
introductory
heroine
boosters
euro
picasa
piccir
beefier
archer
archos
archery
specifics
responding
lemonade
dslrs
judges
sanitary
sanyo
sanctioned
wilder
impressionist
microwavable
nylabones
fearful
goalie
acidic
peacefully
achieving
harshly
flagship
coloured
environmentally
stunningly
crease
##iterate
suspic
suspenders
267
268
2600
dashed
bubblegum
mudder
climax
peppermill
humidor
unhelp
polyurethane
carbonated
awkwardly
philadel
platforming
cultural
gigantic
ignores
ignoring
kayaking
piston
##40s
revis
predators
truthfully
noisier
strategically
disappears
breastfed
broadway
refresher
calculations
destroys
destroying
btu
deducted
mcmorrow
aliens
buffs
buffer
uncontroll
diffuse
mountaineer
mountaineering
encouragement
lawns
raped
rapida
hammered
demise
qualm
qualify
qualifying
unwilling
harnesses
fooling
##points
inseam
britax
stabila
stabilize
frankie
bullets
bullying
bulldog
admired
admiring
admiration
dispensers
languages
##5000
shreds
shredding
sparring
enthralled
peeve
120hz
anticipating
htis
forecast
frankel
amplification
expertise
subwoofers
adhesiveness
4000
injure
acoustically
b0007
b000wyv
articulated
destroyer
cuph
kenmore
ventured
rebut
reprinted
shielded
shielding
summers
bundles
overlapping
concentrating
progresses
progressive
dialogues
cafe
eps14
mortality
mortgage
cluttering
encounters
associates
merino
osx
tickle
##insey
phenomin
registering
enthusiastically
##frame
analyze
analyzing
outset
settlers
remainder
determination
eboost
licorice
tornado
optimum
optimization
sprinkles
submission
1000mm
distributors
motherboards
shrinking
unevenly
dlink
ferment
msata
rambo
translate
motivating
motivations
2000mah
investigated
athlete
julio
michigan
tactics
tournam
theaters
ashton
docked
chatelaine
sponges
untied
unlocking
scotts
highlighting
aggress
podge
podiatrist
equalizer
1992
titanic
titanfall
historic
historically
ghosting
ghostwriter
economics
250mg
biblical
masters
reactor
churchill
ambiance
blindingly
airplanes
refrigerators
favors
sags
##ophiles
##ophobic
skulls
politicians
boredom
borrowing
wobbled
embarrassment
600mg
baited
dubious
ribbed
debra
residents
headbands
conclusions
1cgy
dilute
oreos
##hhhh
##broken
stamping
cancellation
##azzled
crunchiness
transformed
robertson
sophistication
troublesome
1bqu
bindings
federal
mascar
rims
ratcheting
##7600
shady
exhausting
artsy
bobber
pleasingly
puppets
vibrates
vibrator
squirrel
64bit
bosses
koerth
menthol
mccloud
nicked
victori
##nalia
heavenly
cocozia
texting
helicopters
b001e
calibrate
evaluated
lifestraw
germany
2x4
bayon
cadence
fulfilling
hospitals
kraft
scientist
interfering
discontinue
barbec
evolved
telescopes
47lm
azomite
caveats
nuphet
rabid
tsp
wolfgang
selens
selena
chuckle
compasses
crowds
crayola
glittery
headlamps
hardwoods
swords
retainer
prescribed
celebrities
groomed
ottomans
ryan
ryley
ryosuke
ryobi
tlc
virus
rectangle
outlook
outlined
recalled
gracefully
b00hfms
memorize
puzzling
arrangements
punctuation
coughing
ezcast
gangsters
rewarded
hauled
ornaments
improper
elevates
eyelash
eyelids
digitally
bushes
1964
predictably
demonstrated
representation
4x4
4x6
dsi
ddr3
rosy
rosin
##buying
stubby
sewer
flooding
floodlight
bluesy
acquiring
replayable
b0093hh
thermostats
toothbrushes
creeping
cuisine
cuisines
celestron
aeros
elders
minty
pique
piqued
russia
winged
##74c
islands
megac
quarts
coleman
mattel
camcorders
suppressed
suppresses
suppressing
shovels
athletes
deodorants
8x10
migration
omelets
tiger
tumi
tumeric
threats
isolating
##otchy
reappear
reapplied
reapplying
reversed
whisker
compensation
compensated
griddle
deflate
contributes
contributions
possession
immersion
1984
1986
jealousy
revolves
diagnosed
unscrewing
dominant
dominated
dominance
gtx
grover
grohe
jiggle
pooping
rivet
seductive
vastly
inventor
rejects
rejection
praised
praises
shinning
chanel
channing
loyalty
coastal
consecut
argent
arguments
offset
absurdly
##ogenol
portrayal
sata3
reproduce
reproduced
restarted
bookshelves
caloric
bordering
skateboarders
ethylene
eagerly
pakistan
ponytail
roocase
ranges
rangers
##ivering
##zuela
prayer
propelled
exfoliate
exfoliation
compromising
unzips
intricacies
carburet
awarded
pretends
pretending
incomplete
incompreh
concluding
concluded
conflicted
participate
participated
sanitize
implementing
mercy
mercury
merciless
passth
qc3
wandering
revenue
brutally
whirlpool
novella
museums
flameless
bladete
stranded
cheez
cheeky
interruption
interruptions
attributed
transitioning
assassination
erratic
biscuits
catering
cucumbers
desserts
jessica
jumper
mdx
mx7
mantel
mandolin
oscillating
rudder
rhyme
rhyming
##9262
preston
abdul
spike
unheard
sculpting
discharging
peachy
swipes
skimmer
skylanders
condensed
courtney
lounging
2010q
antibiotics
textbooks
bulletproof
emphasis
emphasizes
masonry
pudding
puddle
tbh
tortilla
ww2
winsor
hayward
aspire
neurotic
loafers
cognizant
trophy
unlimited
blonde
dislikes
accumulating
b00g00b
relieve
reliever
relieving
apologized
obnoxiously
baldwin
dutchess
saddles
saddler
dissipates
sampling
innocence
sterilite
francisco
rebuilt
virginia
restrictive
accelerated
accelerometer
phytoderm
vulnerabilities
ditched
guru
hcm
juggle
kangapoo
leslie
nauseating
ocos
tinge
tingle
tingling
tapered
umf
xpand
reeboks
recliners
disguised
granting
intrusion
poisoning
carnage
carnival
cranked
cranberry
cramming
crumbly
crumbling
peeps
embraced
reloading
flattened
weaknesses
escaping
podcasting
cocktails
bidet4me
lubricant
lubrication
bilge
dorothy
gnaw
khan
khaki
korean
kensun
nubs
ingenuity
rehash
##keeper
aspirin
shimmering
shimmery
proportions
dodges
dodging
sulfur
##ulsive
abandoning
adhered
adhering
fluctuate
##gradentia
sniffed
wahl
wahoo
corporate
indiana
emptiness
b008bx
b00005
fanciest
blueray
entrega
distraction
temporpedic
rocketeer
hygiene
##ocraftworld
philosophical
admiral
admirably
ferrari
victoria
victorian
infinitec
revolutionary
ecco
eccocraftworld
lisa
lisara
misfit
misfires
marshall
marshmallow
nooks
pampered
tatum
vinium
vomit
vomiting
yarn
yarrow
yahtz
toppling
inherent
bridges
shoreline
doomed
commendable
orthotic
outweighs
##operative
stratford
montreal
rescues
rescued
resemble
defeated
defeating
sontar
sprouted
devastating
imaginative
succeed
##iiiiiiiiiiiiiiii
migraine
aisles
avec
aveeno
gyro
gouging
ginsana
hutch
hanky
lync
lynley
niche
nicholas
poncho
rambunct
sabrent
vlc
vl103
yelling
##uishable
stuttering
proactive
proactiv
cherish
exhibit
exhibition
organs
uncovered
sacred
appointments
crinkled
pegboard
disclose
disciples
discipline
b00nh12
b00e9262
insignificant
republican
subdial
subdivid
mindfulness
electrolytes
1920s
1970s
fingernails
splintered
lifelike
facilitates
escalate
architectural
cowboystudio
aggravating
rummage
rummaging
rhinogradentia
mushrooms
inquiry
stimulates
##aaaaaaaaaaaaaaaaaaaaaaaaaaaaaaaa
dolphin
wrecked
vigorous
baptism
dazzle
dazzling
fenugreek
gesture
gestures
ionizer
lyric
lambda
peltor
peltier
qaulity
testers
tesla
wyoming
thorns
staedtler
anthony
fracture
expedition
override
aromatherapy
preceding
precedence
knurled
knurling
disapointed
protruding
filmmakers
diversity
redesign
redesigned
perpetrator
oblivion
garnishes
profoundly
daisy
penguin
penguins
parisian
hypnot
swimsuits
burlap
burlwood
superficial
souvenirs
cyberpower
championship
bernard
kristi
inhuman
ancestors
disintegrate
disintegrated
bissell
biceps
berserk
cbd
custard
cactus
d5100
gordon
jonathan
jabbar
jacqu
jeez
jittery
kukui
korg
linda
lupah
mermaid
nourishment
t4i
xbr850
##birds
##6q0
thiamin
inaccurate
bridesmaid
likable
ascorb
prohibitive
heinz
exosuits
dehydrated
aberration
abstract
mosaic
trinidad
unpre
flintstones
knuckles
betrayed
manicure
robsrare
intestines
threshold
reshiram
endeavor
accesories
extremley
lethal
emerald
discretely
elephant
figurine
sunrise
grieving
organizations
patriot
enterprises
1960s
negligible
paradise
encyclopedia
accomodates
darksiders
germinated
ignorance
unconscious
unwrapping
frankenstein
rawhide
biographies
pesticides
quadcopter
dungeon
sacrifices
siphons
diminishes
inconsistencies
fancierstudio
tambourines
cayenne
couture
cajun
cafes
eternity
gisbour
gizmo
hvac
hk250
hustle
hedgehog
jitters
kipling
mackie
nerd
pterosa
pneum
parchment
ritual
svrs
siren
vessel
venezuela
yakima
zytel
##goods
##ragm
##c3bc
reattached
reynolds
wholesome
stuart
soprano
ascending
chisel
chipper
chafing
alfalfa
orphan
deleting
deemed
amusement
quintessential
spdif
travolta
nootropics
enchanted
enabling
claddagh
blossom
bokeh
appeals
appletini
monotony
newfound
resilient
camaraderie
guerlain
fodder
amazonbasics
##dynamic
definitly
sergeant
efficacy
extremes
sneeze
costumer
waaay
meticulously
absolutley
peridot
perplexed
constipation
repackaged
certificate
panicked
multifunction
multivitamin
schlage
scholars
silhouette
irrigation
doorknob
patterned
unfortunatly
futurists
artisan
pennsylvania
counterparts
snowboarding
narcissistic
lifepak
nikkatsu
tiempo
fluoride
hubsan
philippines
privilege
octopus
sooooooo
categorized
atheist
untangled
hexagonal
whimsical
incompetence
reconstruction
entrepreneurs
crucifixion
etymotics
egyptian
pseudo
ineffective
hamburger
agricultural
carbohydrates
misrepresented
1byone
aaron
bichon
cctv
crenova
cilantro
diono
dilemma
drenched
dioxide
ellington
fq150
fictional
gatorskin
hastily
hufflepuff
jungle
kanteen
kelty
kozlows
lycop
lyrics
norelco
naughty
nalgene
odyssey
ostrich
omlc3bc
pinterest
pyram
pamela
pomeranian
qwerty
rarity
rothermel
raticator
ssc007
tandem
tuscan
tungsten
taffeta
uvernal
vonshef
vaporizer
wiht
xfinity
x2605
yacht
zi10
zoolog
zekrom
##weeks
##b76y
tonto
ismooth
inoperable
wholesale
stumpke
priyanka
soymilk
shenanigans
procrast
seyfried
chimney
cholula
chassis
chiffon
algoritmo
ordeal
dementia
delectable
alligator
suzuki
workbench
melody
amityville
goodreads
##outwei
##andgiantseeds
truesuite
##opathic
encoder
enrolled
gossip
afloat
unplayable
scorsese
scb3qp
purplish
niceeshop
blasseti
blupure
grotesque
highlander
impeccable
agatha
handkerchief
crannies
slavery
resignation
bitcoin
decoteau
minnesota
mayonnaise
interspersed
diaphragm
elapsed
sna411
indistinguishable
edmontosaurus
perpendicular
autobiography
curriculum
insinkerator
satisfactorily
apocaly
auditorium
paderno
obsolete
condiciones
schooner
marlowe
nattokinase
irregular
antioxid
antiperspir
wwwworkoutwei
balaclavas
181slox
furminator
paraphernalia
paranoia
141238
harbinger
macmurray
rainforest
telekinesis
misguided
misgivings
plotwatcher
melancholy
gymnastics
torpedo
supremist
nosefrida
lumiscope
riboflavin
unhelpful
philadelphia
b000wyvbr0
eps14hc
phenominal
47lm7600
nuphetamine
b00hfms74c
incomprehensible
bladetech
kangapooch
b008bxb76y
yahtzee
rambunctious
b00nh126q0
b00e9262ie
xbr850b
robsrareandgiantseeds
gisbourne
kozlowski
06
050
040
039
1w
1l
1p
1year
1vi
1qp
2e
2am
2mm
2mp
2oz
2yrs
2tb
2pk
2weeks
3gs
330
370
3pm
374
3yo
3hrs
4l
4am
470
4gb
4100
4lb
4hr
4ghz
5n
510
560
5mg
540
5lb
5lbs
5mph
6v
6k
660
6yr
616
74
7mm
710
7200
7150
86
8lbs
8pm
9v
960
911
925
9000
ay
a4
a6
a3
ald
aur
ame
aile
aother
aph
aub
ayl
auss
aero
aaaaa
ailer
aui
auge
bv
bh
b6
bood
bong
bso
bert
biss
bale
bitten
bitty
boud
busting
baste
bacch
baxter
c7
c3
cort
cite
cine
cph
cels
cues
cited
ciss
cret
cah
caged
cries
caff
ccr
caved
cathy
c01
czech
dm
dg
d4
d8
dst
dood
dau
dought
diz
dich
dink
dint
dail
dign
dans
dild
dange
dup
daw
dird
dsm
dha
dashing
dagger
d32
dapper
dhea
doodle
d28
daugh
dallas
d5000
eu
eg
e6
eon
eri
eink
evie
eves
elf
ets
eee
eric
ecol
ego
einst
eerie
eikon
f8
fj
fas
fot
fet
fad
fare
fug
fang
fift
foun
fences
f90
frie
faves
fencing
feng
fiend
fzex
gm
g5
gin
ged
gould
gist
gull
gph
gush
gina
gino
gaze
gyn
gaur
gassy
gd3
gutter
genders
glee
hm
hh
hf
hone
hest
hong
hipp
hars
hors
huff
hib
hump
hives
hifi
h10
hula
hugging
hatchet
haste
ih
iw
ib
i2
i´
iit
ives
ili
igr
ibs
iams
ids
ihs
icl
icloth
ibaby
ized
jin
jot
jut
jal
jill
jive
jol
jue
jedi
jama
jbud
junks
java
jazzy
jinte
j630
jasper
jenson
jiffy
ks
kc
kx
k9
kar
kot
kut
koo
kau
kum
kep
kos
kale
korn
k70
kios
kuk
kreg
kyo
kelp
kansas
ls
lr
l6
lj
lor
lut
lust
lect
lore
lest
lus
lair
lance
lash
lax
lume
luf
lakes
luth
lamination
mn
mv
mb
mk
m7
m9
mou
mct
moo
mch
mck
mie
mau
mour
mpe
mwh
maid
milled
mms
mik
m10
mama
maver
miter
moust
mhz
m04
masts
mimo
mmmmm
nm
nn
nh
nw
nj
nan
nig
nab
nue
nip
nord
niss
nfl
nipping
napping
nilly
naming
nbc
n64
nctr
nazi
ove
ost
ode
obe
owe
olight
oster
osh
oss
osm
ocr
ooooo
ojn
oasis
pf
pq
pj
pid
pome
pout
pum
pab
pare
pug
pord
pfe
pedi
pash
pals
paces
poof
poun
pitter
p100
piy
pjs
puma
qam
q500
rm
rb
rere
ration
rade
rav
rage
rile
rows
ried
rapt
raining
rene
raking
rma
rero
r30
rena
raved
ruffle
rinky
r2d
sic
sct
sce
sill
sice
sone
sard
sach
s00
sips
sdd
sana
s100
svc
saint
sbc
saran
t7
t2
tve
tard
tge
tink
tass
tull
tamp
taps
taster
tense
tah
tls
tuf
trent
tsh
tasc
tcam
t3i
telo
tnx
tucci
ua
ux
uly
upp
uef
ucl
vg
vp
vid
vice
vag
vitt
vind
vans
vise
vets
vix
viv
vog
vcd
vida
vids
voul
v55
vesse
vaugh
vista
viera
wn
wt
w7
wen
wust
witt
wint
wod
wals
wilt
wives
woon
woud
waker
waved
wuh
wtf
woofers
wacky
xm
xt
xen
xav
xia
x12
xios
yed
yone
yipp
yoy
yuck
yuk
yucky
ycv
yosemite
z2
zar
zan
zap
zwe
zod
zma
zsa
z77
zinn
zuh
zxa
zillion
zacky
zagg
##m6
##m2
##mar
##mic
##mly
##mal
##mid
##mower
##mary
##mined
##mina
##making
##mothers
##marks
##magic
##uon
##uid
##uble
##uate
##uated
##uesome
##uates
##uja
##uza
##ucha
##u82
##sr
##sz
##sin
##sle
##sight
##sive
##sating
##sze
##sport
##srs
##i0
##i1
##iing
##iit
##iated
##ibo
##iations
##iels
##iators
##iander
##i02
##ioland
##ni
##nn
##nw
##nz
##nip
##nated
##nets
##naught
##nee
##nals
##nants
##napped
##nica
##nthe
##gt
##gd
##g6
##g1
##great
##gone
##gart
##gro
##gree
##gments
##gently
##glo
##gatory
##girl
##gfta
##vq
##v6
##v8
##vz
##vj
##vat
##vine
##vos
##vous
##vents
##vron
##vana
##vita
##vuh
##vrg
##vlig
##v88
##v2p
##varna
##vascular
##vnz
##eb
##e7
##e9
##e2
##ele
##ely
##eur
##eble
##eable
##east
##eful
##ecd
##eka
##rm
##r6
##rz
##rer
##rin
##rau
##run
##rink
##rug
##rised
##rals
##rons
##rups
##rama
##rilla
##rhea
##rmn
##ronella
##yg
##yh
##y4
##yarch
##yaki
##ybaby
##oen
##opp
##oast
##oard
##ointing
##ocol
##oku
##oha
##ogram
##octr
##tu
##tw
##tight
##tie
##tos
##tro
##tip
##try
##touch
##tiy
##tlt
##tgart
##cm
##cp
##cq
##c6
##c8
##c9
##cat
##cil
##cos
##cci
##cings
##cock
##cale
##cetic
##culation
##coded
##cqua
##cleaning
##h4
##h6
##har
##hion
##hart
##hought
##hro
##hish
##hower
##hows
##hilar
##hires
##horn
##hov
##holes
##hanger
##hatt
##hanna
##hbc
##a0
##aq
##a9
##aet
##aial
##aism
##aural
##aqua
##di
##dc
##dw
##d4
##d2
##dust
##dain
##dun
##dies
##dock
##d60
##direction
##dgq
##05
##09
##0c2
##0j0
##wu
##w1
##w7
##wj
##won
##wme
##wau
##wig
##wav
##wave
##w10
##wolf
##woman
##wares
##wagen
##warts
##winkle
##wlg
##fn
##f0
##fp
##fen
##fest
##fically
##flo
##filled
##flix
##fcd
##fox
##fancy
##f18
##foto
##fhd
##film
##lv
##lx
##lz
##lag
##lak
##long
##lab
##lip
##lily
##lift
##licks
##luster
##leness
##luding
##luded
##lhp
##pf
##pic
##pid
##pent
##pable
##pine
##pour
##pair
##pock
##pia
##pump
##pages
##pants
##pco
##pads
##picks
##picious
##pacer
##4y
##4a
##4q
##47
##43
##42
##4j
##400
##4oc
##411
##440
##4500
##427
##492
##417
##4g8
##qm
##qo
##qc
##qd
##qq
##q59
##bi
##b0
##b4
##bz
##b2
##bot
##bet
##bri
##bors
##bys
##bled
##bility
##brant
##brew
##bished
##bury
##bgb
##bugs
##bottle
##km
##kc
##k4
##kb
##kit
##kan
##kick
##kies
##kish
##kley
##kakes
##6u
##6t
##6k
##6in
##637
##1t
##1d
##130
##190
##1500
##175
##1wm
##1lhp
##5c
##5d
##51
##5uf
##5500
##595
##xe
##xl
##x9
##xsw
##xmark
##x36
##xdq
##xdw
##7c
##7a
##7l
##71
##73
##710
##736
##7mg9
##8s
##8y
##8f
##87
##83
##8j
##819
##86c
##zi
##z7
##zone
##zie
##zels
##zib
##zgo
##zbu
##z2b
##zhen
##zymes
##9i
##9o
##9b
##900
##9iq
##9x4
##9f2
##9wyv
##9fhd
##3e
##3y
##3o
##3a
##350
##310
##390
##318
##335
##3inch
##3k0
##2t
##2c
##2f
##220
##210
##240
##jh
##jz
##jack
##jah
##jloc
##jrmn
##´t
##👌👌
tht
thuja
theif
theos
theese
thebest
thefancy
##eres
##erion
##erning
##ervable
##inl
##inth
##inel
##inning
##inating
##inets
##inished
##inox
##inbur
##inching
##initis
##initely
##orer
##orse
##oray
##orad
##orce
##orth
##orens
##orating
##orows
##oretti
##atar
##atone
##atite
##atro
##athing
##atables
##attering
##oule
##outers
itm
itb
iter
ital
ithought
tock
tomo
tobs
toots
toons
tomb
toda
toggles
tofu
tolst
##eder
##edance
##edged
##eso
##esed
##eson
##estern
##esco
and02
##inghouse
##llis
##llip
##llock
##llia
##llg2
##iti
##itol
##itating
##itors
##itric
##itator
##itonal
##onis
##ongh
##once
##onest
##onation
##onized
##onym
##onaugh
##onenberg
##reth
##reting
##asar
##asers
##asions
##asking
##asms
##asaki
##asdz
##asemble
##is8
##isle
##ismo
##isput
##isism
##iscer
##enet
##enry
##enaries
##encia
##enzyme
##arb
##arie
##aract
##arious
##arned
##ariness
##arrow
##arius
##anate
##anately
##anufact
##anca
##aniously
##anbul
isu
isan
isso
isof
isagen
isotonic
##leck
##leigh
##leys
##lebot
##omi
##omar
##oments
##omination
##omask
##omaly
##otv
##otion
##otted
##oteric
##otox
##otonin
ing
ina
inl
inos
inactivity
##icol
##icult
##icited
##icament
##utters
##utional
##utants
oft
onyx
fora
forl
forays
forens
forte
rea
rew
rend
reis
reid
reim
reest
reind
reich
rept
reins
revert
revision
rebell
rejo
rehyd
reju
renders
replete
hai
hare
hail
haus
hager
haph
hays
hacks
havers
haunt
hazards
##etary
##ethe
##etje
##sever
##sevel
##sels
brat
brine
braz
brach
brac
broth
braids
##lystore
##stop
##stars
##stasy
##stops
myfit
myths
beld
beers
beau
beop
begs
befor
befriend
beaded
begu
beaker
befall
beggin
##alf
##along
##aline
##alier
##alized
##alanced
##alpa
##alcement
##alcoat
##ooove
whic
whack
whipp
whale
whizz
whoooo
whoops
whoring
whales
whirling
stant
stear
stare
stry
staid
staged
stature
stoop
staked
stagger
stoned
stalled
stiched
stoga
##chs
##chers
##chie
##chip
##chef
##chilla
youre
prd
pried
pront
prying
prizes
##owell
##owler
thatcher
withered
withstood
##ldon
##idp
##idal
##idable
##idate
##idine
##idated
##idences
##idgen
##idelity
##urg
##uro
##urst
##urpr
##urized
##meg
##mell
##meas
##meir
weim
welf
webb
weaves
weaning
butler
notion
notation
notting
notches
notorious
##adu
##ady
##ador
##adow
##aders
##adiv
##adisk
##adryl
sog
sox
sober
soaker
soils
sochi
##ionably
##ceus
##ceiver
##cemic
##enth
##entar
##entric
liz
liam
limost
livest
livlig
##kew
##kender
asim
asph
asix
asics
asyl
asura
aswell
ascetic
anal
anil
anem
anton
anod
anew
anatom
anecd
anomaly
shi
shur
shook
shun
shear
shud
shaper
shined
shakers
shucks
shaken
shui
shakiness
shivering
shorth
##tha
##thes
##thon
##this
##than
##thal
##thest
##thren
##thia
##thew
##thora
arena
proc
proff
proves
procl
prosec
##irm
##iry
##ira
##irlo
vern
verbat
verlag
sender
seized
seism
sebbie
sepia
dop
dober
docks
dodo
dojo
doye
worm
wors
wordy
worship
##illi
##ill2
##illac
##ppel
##ppies
##ppiness
chen
chil
chand
chate
chint
chia
chlo
chills
chives
chester
chagr
chafe
##icel
##icello
hend
heath
heming
hems
hella
heeded
hemmed
hector
hectic
heirlo
nev
neo
nell
neice
necks
nebr
neody
nemor
neotv
##reate
##reatic
como
comap
comical
comedi
comod
commod
comedies
comentar
##rif
##rian
##rience
##rietary
exit
exem
exile
exited
exacl
exhilar
loot
lozen
lobes
lollip
ala
aler
alan
alad
alge
alger
alber
alway
alumn
alesis
algae
aloha
alpine
canton
canines
canadian
oro
oral
orland
##oodness
##agi
##agin
##agle
##agent
##agus
##agear
##agically
##agne
##amer
##amide
##amind
##amation
##amont
##amoto
##amanda
depp
deft
deign
dext
deinter
demi
delish
deete
deffin
ats
atv
atf
atop
atsc
atkins
allure
alleg
pli
plast
plac
plump
plaster
plunk
plumps
plague
plagues
##ackle
##iland
##ilings
##ilton
##ilock
##ilates
##ilize
##iluted
##ilayer
##ilogue
##ilitating
fring
frays
frother
frapp
frilly
frazzled
likeli
sund
suun
suctions
sums
sump
sukey
sunda
workman
workload
mei
me3
meow
meand
meade
meij
##uling
##ulic
##ulent
##ulge
##ulative
amm
ama
amen
amish
amii
amused
amica
amphony
amoretti
usp
qui
quan
quik
quero
quetz
quasi
quatro
##apc
##aped
##apurn
##apeno
cog
coct
coal
coven
coher
coons
coding
cobble
cohen
cobra
coenzyme
justo
goodman
##antes
outboard
outsh
outwards
outgoing
outcomes
upro
upward
uphill
##ablet
##asted
##astes
##astruct
##imation
##imated
##imote
##imax
##imient
##ained
##ainable
##ifing
##ifice
##ifully
##iferous
conge
congest
converse
converts
##elab
getaways
looker
##ersion
##esta
##estone
##estry
##estionably
wouldve
wouldhave
prodcut
##aku
##akura
bueat
feisty
productivity
##aure
##auly
##aunch
hasbro
abc
ably
abide
aboard
abhish
willy
willl
willed
##ereo
##erella
mover
moong
moph
moores
molly
mocha
mozzies
##eman
##eminate
weller
wellbe
sp3
spic
spri
spand
spiced
splic
spank
spacy
sperry
spears
sphero
sphr
spayed
spacer
spenco
spooky
sporad
trot
tric
trood
trite
trab
trund
trapping
tromb
troph
trapper
troops
trinity
trousers
hadley
##uno
##unc
##unity
##unting
##unia
##unzel
##un5z
##igate
##igration
##igrain
anyplace
##ortion
##ortions
tiara
nos
nov
nod
node
noco
noelle
nobel
nocqua
##arded
##opic
##oples
##opathy
##olor
##olves
##olical
##olts
reco
recive
reclus
reclines
##usale
##ateurs
lev
lease
leary
leasing
levi
lexus
lexmark
enys
enther
enlar
enzymes
timeline
##ongated
##erfoot
##erfruit
everthing
evernote
compli
compra
compulsive
yourselves
##gees
gos
adr
adap
adren
adina
adley
adverse
adeline
adroit
adwd
adrian
##sock
##ittee
##inda
##actic
##actions
##actical
afar
##izetti
##izetec
muck
muller
muzzle
unu
unse
unite
unab
untr
unsy
uncon
ungl
unfriend
unoff
unpro
uneth
un46
unopened
unglo
unicel
##umu
##umy
##uming
##umbed
therefor
##abr
##aboo
##abble
##ab60
##abidi
diddy
##inea
##ineering
expo
expat
expend
expire
explet
expires
exposition
exponent
exposures
exprience
howl
howard
howling
##istate
##istrative
##epy
scant
scout
scams
scoffs
scroller
scowler
perfumy
##ospor
##oshi
smu
sma
smug
smits
smitty
sm58
smidgen
overp
overuse
overused
overland
overrated
overdo
overwater
overwr
overfill
donation
donuts
donizetti
purist
purgatory
recomand
arous
argin
armas
argu
arguing
arctic
arceus
everyones
clap
clone
clive
clare
clove
clashing
clashes
claud
clerk
clusters
claire
offsh
offender
offending
##inkly
prequ
preci
preface
prehe
precon
preppy
preval
preordered
preforms
preoperative
##avan
##avors
##azard
##azp8
##uella
flan
flak
flac
flipp
flutes
flushed
florescent
fledged
perfectas
backer
backings
backrest
backarrow
setter
setters
setbacks
blake
blub
blouse
blurs
blogs
blotches
blanks
blotchy
blizetec
boast
bogs
boggles
bochy
boetje
knack
knip
knead
knox
knifing
goth
##endum
lighters
lightroom
lightah
lightman
##mente
##mentally
betty
##rock
##roved
##roving
##ropping
##roken
##roaches
##rofen
disple
disod
disne
dispar
disability
disson
disru
disrup
diseng
##iph
bye
byte
bystand
manus
manners
manpower
mangled
manhand
manuel
manuka
manhatt
shelling
sheldon
thingie
roam
roger
rogan
roster
roches
rosters
keeble
veil
grated
graced
granger
graze
grumpy
grapes
graham
gruesome
graet
immob
imitations
imbedded
firth
##ensable
##acho
##acher
##achio
##aren
##aret
##arel
##ry4
##ryer
intra
intru
intonation
twig
twang
twinkly
strate
strums
strached
stradiv
agar
agri
agony
aggreg
agitator
ponder
pods
popper
poker
poetry
##vester
playd
playon
playbar
desde
desque
desicc
deshed
descends
desensit
sax
sawh
##urned
##derco
instal
instability
instaf
instagr
watcher
botle
##ferred
longed
longing
longtime
##owned
handel
handily
handgun
handcraft
chex
cheer
cheww
cheering
chevron
hoot
hoist
hobo
holloween
hoisting
hobbs
hooray
whoa
whodun
sizable
matx
matress
matern
bago
bagless
bagels
bagging
bagged
baggie
lotr
lottery
##oura
##ourse
cary
carot
carter
carose
carfe
carvers
carring
carriage
caroline
caravan
opi
opte
##acity
##acopter
##acotta
##acolor
##tyfc
##assing
clep
cleats
cleef
clealy
##00s0
##pled
##plated
##plicated
##tron
##tras
##trol
##tracks
##tronic
##udy
##uda
##udite
trifold
triblade
herm
herd
makeing
makeover
colace
colts
colicky
awak
aways
aw100
awaken
bats
batt
baton
batery
happend
happiest
appx
appstore
apparel
phased
phases
phoned
phoen
phlebot
phthal
phablet
drape
monolog
newcom
##ishable
thinker
##ometers
##omethion
soundly
soundbars
##onder
##onduct
helena
cres
crome
crum
crates
cr20
cr12
crummy
crusted
crescent
crumble
cringe
cressi
cronenberg
cruella
acet
acup
acute
acai
makings
glade
glover
glanced
glitz
gluing
charism
slat
sled
slop
slab
slings
slash
slaughter
slither
slinger
slumber
slicky
slopes
slabs
##things
booking
bookstore
seemsto
thrice
throne
thrills
thrashed
orderly
rese
resent
resets
resized
resorts
resigned
reserving
##fortably
##ignment
camers
camps
camco
camara
rightful
differnce
defensive
defending
bigby
##reeze
downwards
downtro
##pride
##priced
##mods
pex
peer
peopl
pecans
peoples
guam
gu10
gucci
guppies
guinea
fungal
funnels
funeral
fungus
funtional
##perse
dayton
preteen
trym
tryed
tryout
wring
wrought
wroth
writting
wracking
foe
fob
fobs
folly
fofa
##kswagen
addams
addtional
addendum
##ugues
sinuses
headers
harden
hardens
hardfl
hardship
hardhat
decay
decant
decoy
##cier
##ciitis
##ci6j
screams
contex
contender
contorted
contortions
##lime
cheapen
cheapie
cheapness
swam
swab
swoop
swede
swirling
swirls
cutlets
cuteness
cuticles
mining
minis
mincing
minox
minisc
minivan
minidp
minoura
farming
farmer
shouldnt
incent
incess
incense
incurable
incentive
##ormally
##ormats
##peakers
maya
mayhem
secateurs
weekender
##ordinated
founder
founded
definiet
definitive
definete
definetly
weared
joist
joys
jolly
joker
##phem
##phlet
##phenol
##phalon
waterbottle
##ubarb
cameron
##feet
##nings
surplus
##oyed
cleanest
cleanings
worths
endanger
endearing
endorse
designated
accol
accused
duracell
durango
##tee
##te0
##text
moneys
##psy
##gr6
##granate
camellia
roomier
roominess
replen
replays
replicated
replication
takamine
botton
retal
retension
retinal
reticle
undergar
undergo
underwhel
underpower
underworld
undercur
undermined
underpants
underpriced
skat
skunk
skunks
sonar
sonia
##ildogs
pieced
finco
finances
finches
fincher
fineness
interc
interlock
interiors
interstate
interventions
intertw
turnaround
prototy
protocol
##reading
belay
belive
belize
##ashi
openwr
gior
giver
giac
gibr
giotto
gibbs
giamanda
realise
realised
realms
realtek
realmente
installments
##ossessed
filth
filers
filings
filson
filament
consp
consent
conscient
consigned
consignment
standout
standalone
##ioca
impre
impet
impart
impose
impede
implying
impala
impedance
plethora
badges
baddie
runing
dior
divin
diverter
diatom
finepix
hopin
kiddy
kiddle
kidneys
kidnapped
symm
syma
syfy
syring
syrups
sypco
10m
10s
10ks
10mm
10lb
10pcs
103s
coverall
coverings
##up5
##uprofen
homewor
homecoming
homeowners
homeopathic
homebrew
esupp
esoteric
lessens
lessening
##deen
fullness
##avored
earwax
weightless
solitary
solenoid
soluble
solvents
solzhen
##awl
##awed
##awood
##awful
warioland
attentive
coupe
##beam
powerb
powerline
powerwasher
powerpoint
softball
beautifull
hourly
superc
supermark
superpak
screening
screenplay
screencaps
efferves
effeminate
largely
regions
regional
regged
regiment
regulated
loveseat
##eeee
##web
joby
fasted
fastens
blacking
blacktop
blacklist
##ructed
drizz
dribble
drizzle
drifting
clearest
els
elo
elis
elmo
elise
eluc
elko
elago
elabor
elongated
absence
breville
brethren
severity
remaster
remakes
remanufact
housewarming
houseplants
20s
20d
20w
20pcs
209b
snapp
snatch
snoop
snails
snipers
sniper
snobby
snuza
snouters
##toneram
tyr
tyc
tyre
tyke
nightly
nightsh
##ertation
##ertube
kindles
hairy
hairball
hairbrush
hairpin
hairmax
costomer
wondeful
extrater
##atches
##mmm
heavyweight
babble
##elson
##elssze
personable
##ggk
##ggv6
famed
wavering
wallop
wallpapers
completion
saids
gamming
gambling
musty
##ivo
##ivable
##ivities
capm
freebie
freebies
toolkit
metaph
metron
musings
musky
mussels
collis
collage
coolant
coolers
bedbugs
wishstone
stuffy
pairings
##ogens
sleigh
broch
broil
broked
broiling
brolly
mightily
infuse
infuss
infring
infested
skinless
airtight
lowers
corvet
coriander
corrug
corinth
modular
modding
modifier
##odi
##oda
##odream
##odiox
##odrama
removers
onesie
probiotics
probiotic
indie
indices
indef
induction
indisp
indoctr
indulge
##nesspal
pickled
pickpock
providian
provocative
smeared
smelt
valance
valerie
careg
breakers
breakup
breakthrough
oriental
##ibu
shortening
emit
ember
emitting
embers
emitter
emerson
emereo
babyish
discerning
originator
redo
redd
redne
redford
barry
bargin
barney
barilla
barriers
stews
sawdust
edwards
edged
eddie
edinbur
edifice
portugal
portmeir
portugues
satire
testim
refining
reforms
refuge
reformat
showtime
aviation
avaial
avatar
bashing
eleventh
greeted
calluses
callaway
optically
childbir
b00i
b00cks
b00lo
b00bb
b00aa
b00ob
b0077
b0075
b0076
b0032
b00c2
b0074
b0035
b00kv
b00jk
b00v3
b00ghs
b00vuh
b00jrmn
b00un5z
b00tyfc
b00ci6j
b00gr6
companions
describle
storybook
deth
detri
detang
detangler
glassy
dvrs
dvc2
genetically
painters
pervert
perlier
permed
perches
permiss
perched
permits
persever
perishable
pluses
cuteybaby
autos
coffie
coffeem
##ewear
traveller
musiclily
sharpe
sharps
fanatics
curbs
currant
curbing
curvy
eying
eyewear
##nea
##nek
##nell
##issive
##issance
terv
terra
wholehe
payne
paylak
leathercraft
hd280
hdcp
hd595
stares
starve
starved
starving
starcraft
windsock
relive
relies
reloc
choir
choco
choppiness
instructing
planed
planters
planners
mainland
##itsyn
customs
customary
thickly
thickening
bulbr
photop
hued
directing
directors
oiled
oiling
keylog
keytones
keyblade
althought
gladiator
ideals
scrat
scrut
scrum
scrapers
scrabble
versed
versit
learner
hotdog
mountable
computing
##ienta
##licting
frontal
locating
locals
spacey
spacex
smooths
smoothest
insin
insure
insular
insider
insured
stayhold
stayfit
presidents
preserves
preserving
darkroom
darkened
lineage
changeable
spruce
spritz
matchy
checker
checkpoints
apes
apit
apis
banded
bandanas
repos
repro
repels
repalcement
repossessed
##aptured
126
128
12ft
12oz
1225
12x36
subbed
subway
subpar
subtract
suburb
substandard
subaqua
sublime
performers
thins
thinness
thinnest
pasty
pastels
pastime
audacity
handsets
sharping
figs
looo
looooove
15a
15w
15in
15lb
15x12
creators
pane
panther
panini
pancho
pankies
sung
sunscreens
sunbeam
paddy
paddles
studded
obese
cordingly
switcher
switchers
##athin
tasteful
multicol
multilayer
multigrain
formations
formidable
transp
transpl
transitions
transitional
transcend
transcript
transceiver
transactions
typewriter
magform
magsafe
toyed
toymail
attachable
##alet
excite
##gther
concur
condor
condone
conduc
conduit
condiments
sleepers
schub
scholl
schott
scheming
##cca
100ft
100psi
waitress
birch
birken
marly
marie
marines
marrow
marred
marley
marvin
marfa
marais
marvell
martha
singe
singly
affleck
affirm
variant
volkin
volunt
volkswagen
metalworking
natives
christening
christgau
machete
invite
invasion
blueberries
##ellas
##ellar
travelmate
grandaughter
grandmas
grandmothers
restored
restoring
restorer
woody
woodwork
commence
commission
committee
bias
bien
biotics
biosh
bioper
bikers
bianca
cookout
garth
garfield
garrage
kites
mixers
plugins
depiction
healed
holistic
holsters
holographic
entities
entitled
pocketing
30g
304
305
30th
30am
30mm
30hz
confetti
confeder
conflicting
ruburt
dama
damon
damper
dammit
gripped
bodyweight
generics
generously
messiah
posi
courage
potions
potted
organics
organizes
allowances
netting
netlix
builders
fourteen
mediasonic
mediapc
silvester
midsection
warmed
warmest
##syb
walkers
understandably
fillets
irrespons
##dspeakers
similarity
##eshoe
asinine
worldwide
minds
mindbl
signed
assed
assets
assuring
outsidepride
digits
advertized
##nett
cartel
cabling
armaged
armrest
armenian
profesional
electroc
electrod
greener
greenish
greenwich
pillar
wheal
handycam
lockdown
flatter
flatbed
hangout
50d
50w
50usd
moron
morse
morph
morrow
moretti
morbid
passat
flashers
flashback
horace
horny
horrid
horrend
##ianne
healthcare
calmer
calfs
calculation
calphalon
##pared
recorders
loser
losers
usb3
ipad2
typo
patten
patron
patented
patios
patagon
savior
##ittingly
collectable
loupe
loudspeakers
motives
motley
mottos
##lok
##loid
##lode
##loaf
##logged
##logging
fables
lateral
immoral
immigration
sensed
sensing
catan
caters
cataly
catnip
catwoman
cataract
catalpa
wasteful
standardized
detailpage
practising
practicality
temple
footed
footrest
polk
polos
polisher
annually
annapurn
casually
casque
behead
behaving
behalf
dolly
##ahe
##aho
progressed
affords
birthstone
sentiments
sentinel
angst
angie
anguish
centre
centimeter
centuries
frend
humistat
201wa
combos
200m
200lb
##eptic
##iew3o
operators
treatise
##ucent
suites
droped
locales
speeding
speedily
speedometer
speedlights
speedcross
presenta
presenter
##manis
##mania
mattered
prefered
preferable
devise
devlin
devildogs
menop
menage
menstr
psn
psk
floored
boarder
campy
camped
riders
ridding
##brand
##bruck
##branded
advil
advising
advises
explodes
exploding
multiplier
smartwatch
displayport
slowing
excitedly
hitler
saline
salient
salinger
saliva
##cocious
bleak
##lery
printable
attractant
attractions
speculate
specimen
ergo
erudite
rayman
tonal
bathed
goldfish
goldmund
straightens
##bblings
##bb4a
measly
wristwatch
technica
technological
pushers
pushups
pushpins
##ze6q
##ze8h
strive
strikes
striker
strippers
purposely
purposeful
stephan
livingroom
##50f18
chained
freshens
freshening
freshener
freshwater
entertains
equality
equation
equip
equations
equates
postal
growl
growling
sweetleaf
minihd
bassy
basswood
##pperoni
layed
layering
eva
evoo
eviscer
voip
voiced
voicing
vochic
laureth
nutro
nutmeg
artistry
imagining
milton
milestones
milquet
milwau
##ridox
loader
penlight
reachout
closures
firming
warranted
195
1900
1945
1954
womens
##rently
learners
fabricates
##iii
##iihbc
examining
##ologically
##ologizing
11g
111
117
113
11lbs
gloved
gloomy
balan
balun
creamers
heatproof
dishonest
delicous
delicates
delicacy
40c
4070
energizing
beatiful
sonya
133
13½
1377
1368
dimples
youngster
##zzie
1680
16lbs
16oz
celloph
selfish
linq
linon
linens
liniment
linole
trebles
treyarch
trepid
##fetb9
exercised
characterize
streamline
compacts
compacted
compactly
compactness
programmer
##lectic
##lectronics
sleeved
18v
188
1800
tenders
tendencies
tendinitis
inktoneram
spotting
spotty
dinning
heartily
heartache
heartwarming
heartbroken
peters
petunia
forwards
framework
throwback
inexplic
furry
furthest
illeg
illinois
illiterate
rada
radon
radial
radiation
radiance
attractively
graphical
ohh
ohio
ohms
reciproc
parab
parades
parini
parodies
walberg
walgreen
clipless
brotherhood
14k
145
1400
14mm
catchlights
sealant
grounded
grounding
resistive
tracked
255
252
25lb
25lbs
firewall
fireworks
vitas
focussing
hurley
maxx
puke
pupperoni
reliving
buns
bungy
bungees
idol
idios
idaho
jumpy
jumpers
##uitable
##uitous
bowed
bowing
bowels
mailman
sandford
60s
6013
harass
harps
haribo
lackluster
sado
sadder
sadness
sadosp
squat
squid
squarely
squishing
squared
teachout
teachings
majestic
fella
spokes
spokane
photosho
temperamental
fatter
hiker
rounding
browned
##retched
toughest
toughened
shockingly
faq
faul
trusty
trustworthy
macros
maccha
macintosh
ranked
stretchable
circa
circul
gunmet
##control
dusts
initiate
periwinkle
tagging
budged
mistreat
jackie
jackpot
appreciating
rainbows
wetness
heightened
silverado
##afl
##iffs
strollers
encased
encroach
encoding
diameters
personalization
hyst
hyster
hynek
nailer
nailing
nailers
pinku
pinkish
dispute
disputes
incrementally
tallit
strenght
minimized
literary
##aaa
succes
amzer
amzing
supplementing
bonnet
bonfire
bonmus
##80x
splat
splattered
splotches
despot
despair
annoyingly
contented
candida
candelab
iceberg
wiper
crossman
crossbars
crossfit
crossroads
dietetic
dieticians
jeweled
jewelery
danie
##ocity
chewables
paintable
##glas
logistically
springfield
wheelie
benefited
benefitted
benefiber
twisty
foamer
consisting
consistant
netflicks
ironside
strengthens
fiesta
targus
traders
traditions
traditric
upgradeable
mediter
meditations
suffocate
tenor
tenure
tennes
timed
applicable
oppress
##ifiable
moistness
nori
sourced
velour
velux
velocity
##ymf4
##ym492
##by3
blocky
blockage
misbe
misery
misunder
misprint
mischief
mischie
navadia
sora
sores
tabloid
smokin
smokey
susceptable
automation
24p
24th
squealing
##ma430
buttered
177
179
17th
1700
17417
pinned
pinpoint
bendy
alternating
snowbl
snowmobile
narration
alarming
craftmanship
hesitations
haters
winch
winners
winston
winnie
clicky
zoomed
##20p
##206
##2013
challenged
melotonin
melodrama
neighbour
neighbours
epox
epilogue
epiph
fightstick
histogram
histidine
killers
pcie
poolside
viable
viking
clarified
clarison
clarinets
survives
elegantly
massages
rotor
rotting
rotary
competent
competently
electronically
odious
webpage
webcomic
bunches
puree
pureed
purebody
puregreen
rougher
roughness
##10r
##101
##1080
existant
deathly
deathbed
besgoods
rae
rais
raider
raoul
##minating
##uxze6q
inflator
inflamed
inflatables
inflamation
tapers
tapestry
tapioca
avoids
sensitively
adored
adorably
knockout
##my02
repeater
repellers
repellant
compatri
magnani
teenaged
waterproofing
synching
sixth
sixties
sixteen
motionless
utg
utp
utube
solaray
microban
momentary
questioning
80i
80mm
80fd
lawrence
##fyh4
primate
primitive
carpel
guestroom
fishman
fishbow
##months
weirdness
stresses
impossibly
waisted
waisting
rearview
rearward
meatloaf
uncommon
uncompressed
uncomfortably
regarded
violating
##sses
degener
budgeted
boos
boobs
ceases
ceasar
ceilings
empath
empowers
unden
undiluted
underfoot
##flask
##fluid
slimline
slimmest
consummate
captive
stapled
staplers
trainings
trailbl
booties
burt
burps
burgl
estado
esteem
establ
pendent
pendulum
pendrive
critics
critically
criterion
critisism
charmed
knowingly
capacious
capacities
sleeker
009
00am
hunts
obsc
observable
clockwork
saltwater
identifying
identifiable
americana
rusts
rustle
rustling
rustlers
belle
bellies
suckers
moldy
controllable
martyr
crystall
##smith
##raulic
doctoral
7018
razr
##efined
liqui
bubbly
bubbled
drumming
galore
blowout
blowouts
masterfully
##washing
alternatively
laur
laura
roms
romp
romania
codeine
compresses
compressing
compressors
scariest
500r
500pc
referenced
referring
referrals
envio
guaranty
guarantees
bangle
latitude
##ealing
backgrounds
communion
cabinetry
32x
dreamed
dreamland
welders
dirtier
eggplant
eggshell
vanished
##crash
##cratic
##crafting
selective
selectivity
inspires
liquidation
werent
wisely
lovingly
##abilia
stringed
300m
300w
300mm
300gb
300lb
destruct
lumines
lumania
routed
routing
##cafe
wrinkly
wrinkling
tubel
plainly
unsurpr
unsuitable
flava
rodney
grady
grados
accepts
servant
357
3500
35lb
lunchbox
stoneground
lipodream
fruitcake
grassho
detects
detectable
objective
magnetized
tenth
tenths
methyl
emerged
educating
educators
gadd
kingpin
toothless
delights
swingtip
meaningless
galaxseed
basketweave
turret
turkeys
turpentine
turkish
##locker
orangey
unbound
unbalanced
unbroken
affective
cushiony
environs
enviroments
223
22nd
22240
gallant
mgm
wiggled
wiggles
vegetation
fogo
narrowest
dualshock
geo
sighted
sighting
##worth
shrill
shrug
shrubs
benny
benadryl
bennett
breezes
##cerin
##hai
sequins
sequencing
allergens
sportura
expander
dissatisf
dissertation
accordion
stealthy
irritable
irritations
dangerously
crimmy
punchy
punching
vender
thorpe
plantations
femme
flopping
addressing
steamy
steamed
looses
neighboring
cotter
ghee
honeycomb
malate
malware
malted
malinois
malabar
malinda
malibu
##303
##3020
prince
scaler
scalding
deserving
milland
sami
##metto
propylene
proprietary
instantaneous
coconuts
duar
duel
duper
dyn
dyed
dyna
miked
miami
piping
parker
parkinson
pathways
sdh
wrenching
##rupted
impacted
waxes
maxima
gentlemen
gelatin
hoods
hoodia
##einated
##drive
##driver
##9011
brainwav
shirakura
teammates
simplest
simplify
simplifying
joyce
familiarity
familiarize
navigable
aa19
bounty
murky
uran
urinary
urgently
widow
widget
chestnut
##iminary
grocer
harming
ratty
unfast
unfounded
unfinished
fluids
appealed
disposables
citric
citronella
patchy
patched
ensured
diva
divots
divorce
superiority
guaranteeing
1star
banned
germs
gerolf
gerhard
wok
##eye
##ey3y
chalky
structural
drago
eliminator
hydraulic
lagging
lagged
muffle
muffling
muffler
blasted
blasting
escort
escrit
configs
laserjet
journals
piccol
##129
##1280x
beefed
archshield
bankers
judaism
sanford
tanner
wildsmith
##70s
##701d
halls
hallways
enhancing
rosewood
rosehips
rosemary
impressionable
impressionism
impressionists
cruz
crucially
cruiser
cruisers
acidity
surfboard
wonderfull
confidential
harshness
lanyards
thumbsticks
thumbwheel
thumbdrive
proceeding
delve
delays
delves
delsey
delbruck
flagg
roberto
screenshots
extracted
looping
commerce
286
creasing
creaks
falcon
jamie
expressing
expressions
appetizer
bargained
psychotic
psychologist
psychiat
26g
2600mah
26650
astors
astounded
astounding
debate
debug
debated
debunk
deborah
debuon
debilitating
leafy
mudroom
climbs
rollerbl
newspapers
peppercorn
behaviors
behaviour
humidifiers
denon
denying
dava
duller
hatsan
paella
paiste
tailbone
librarian
aligns
subsid
unhook
polycar
polyphenol
carbonate
150lbs
birdhouse
platformer
duffels
gigi
giggle
ignite
pears
pistacch
pistachio
##406
##402k
revive
reviw
predr
prediction
predicted
predicament
noisem
grainier
##aclear
disappearance
breastpump
broader
broadband
broadheads
broadcaster
departure
axion
axel
axial
deduct
dedicate
dedicating
mcstuff
palms
palpable
palmetto
stomping
aliasing
bugaboo
buffy
spanning
spanner
spanned
uncooked
uncondition
cheesecake
differs
diffrent
diffused
diffusing
triggering
brewers
smokehouse
jarrow
rapunzel
topspin
reinvent
beanie
ordinarily
demos
deceit
deceive
qualite
qualifies
qualtiy
adaptors
unwind
unwashed
unwrap
slideshow
ladybug
aimlessly
fools
britain
stovetop
stabilized
welcoming
sophia
quantum
quantitative
bullock
specter
admitting
splitters
accommodates
gatecrash
octane
octomask
wesley
spared
sparse
sparrow
enthused
attacking
attackers
illustration
illustrates
365
cynical
cystic
cycleops
gemstones
htl
html
reno
renata
rennie
renowned
satechi
expertly
strained
glitched
tastykakes
scrubber
scrubbers
sweeps
42i
425
hitchcock
luv
luis
luch
luci
lukey
beardy
leashes
carrera
b000elssze
distorting
tempur
tempting
polarizing
accomplishing
bbqs
fascinates
fascinator
aiden
kenya
ventilated
ventilo
rebates
shields
mosin
clubface
clubbing
backspacer
trimmings
satisfyingly
progressing
progressively
dialogs
syncmaster
cavern
denture
dentures
gba
mortally
pacs
pacino
pacifiers
pacsafe
##yrn
clutches
premade
illuminator
faithfully
spiritually
hilariously
associating
bioguard
mercedes
moods
osama
ticked
flicked
flickers
flickered
dramas
swiveling
scraped
scheduling
complimenting
celiac
crews
janet
taxing
taxpay
##front
hamster
hamstr
hamilton
socialist
socialize
analytical
analyzes
membership
outsiders
##untu
overpricing
prefab
integral
integrate
integrating
corns
determines
curiously
polishes
consumerlab
graduating
murderer
murderous
behavioral
subscribed
ebi
##liner
stormy
provence
matheson
cranking
optima
optimized
b004w
b004k
b004jm
detaching
submitted
submissive
distributor
distributing
maddel
ferre
ferro
ferbies
msg
petsafe
rowing
##foey3y
chicco
cosmetically
belonged
familial
directorial
translations
translucent
motivates
motivator
motivational
investigator
estimation
estimations
configurable
nutritioniste
unnecessarily
856
8550
michel
michelle
pitfall
pitiful
pitbull
touring
tourist
##yalgia
ashes
ashleigh
chatter
champagne
untoward
unlocks
unlockable
scotland
scuffmarks
highlighter
highlighted
twinings
respecting
respective
distracts
1996
1995
1997
scalpers
236
2300mah
biblic
dampen
dampening
golfers
jerusale
lapis
lapel
masked
masuline
masquer
vetri
##iya
reacts
##strom
execute
plasmas
ambition
##ospher
blinding
blindly
tweeter
tweeters
editors
refrigerate
popcornflix
launching
launchers
emotionalism
aqui
aquam
aquaclear
gopher
jethro
nyko
nydj
pulp
pulver
pulsing
pulsating
pantoth
pantene
sr9
sr9c
sagged
saggy
uploading
tradeoff
expansions
smudged
smudgy
overspending
fluffed
planetary
marinating
digested
digesting
politically
borrowers
6000
600w
720s
baiting
dubbed
malleable
wdr
wd200
##restrial
alerted
scribe
scripted
scribblings
cloak
boomer
booming
residual
contemplated
conclusive
confirming
occurring
dynamite
experimentation
maneuvers
berlin
bernie
beretta
berkley
diluting
dumping
dumpster
napkin
orecks
puffs
pizzas
rushes
venom
venge
venison
wiimote
##hof
relying
relytec
canceled
canceling
gravies
gravitate
hostages
crawled
crawls
crawlies
crawford
crunching
thrillers
defaults
subtly
entryway
midsize
1bq
1bpn
ecstasy
eclectic
maryland
owen
owls
rimmed
reordering
chambers
bodice
disgust
grooved
bedsheets
bedspread
employment
marching
chalkboards
overwhelmingly
maneuvering
38mm
6400
cyclist
dumbest
gabby
gabba
kochan
mccoy
mcconaugh
nicknamed
pierce
piercings
rcs
rumford
onset
segreg
cocoon
unstuck
unstopp
##umbered
texans
decreases
retrieving
remarked
discolor
b0016
b001wm
b001ez
b001azp8
repetit
horns
hornets
evaluating
3931
39318
cadillac
krauly
palette
rhubarb
westinghouse
##romyalgia
##32y
##3000
toasts
branched
##altar
hexacopter
comforable
quirk
cockroaches
moonstone
unpleasantly
arthaus
bonds
bonded
drugstore
simultaneous
simultaniously
percentile
marginal
evolves
northwest
reportedly
reinforces
sterlingpro
accomplishes
accomplishments
phenomenon
telescopic
4770
4784
augurs
augmented
ellison
lucille
nielson
omgoodness
ts4
ts3
##rusions
italiana
brassy
sel50f18
hempseeds
neutrog
glittering
inspector
competitively
rigidity
broadcasts
franklyn
resourceful
celebrated
celebrating
celebrations
symbolism
8000
aprons
cflb
homage
ryp
ryder
tuan
tuve
viral
habitat
beasts
stirred
##apointed
outlive
outlines
outlining
recalls
knotting
farmers
attending
b00hc5
b00h4g8
b00hbgb
assigning
promoting
memorial
memorized
memorabilia
influences
influential
criticisms
substituting
arranging
punctures
circumstance
favourites
bidets
coughed
ezio
eastsport
festool
gusts
gusto
gustav
gangs
oakland
##nati
##457mg9
##385
inquests
hackers
spillage
##abyte
scammed
grossly
improm
imprinted
spelled
spellbound
surgeries
sneaked
sneaker
elevation
elevators
b005d
b0051
eyelid
bushcraft
bushnell
bushcrafting
1961
1967
1969
3x5
alexia
dreads
dreadful
dreadnaught
geeks
klebe
pigs
pigment
pigtail
rosette
roshan
s4200
##c2gw
##built
stubbs
sewed
altar
altitude
spyderco
recycl
engrossed
scarecrow
floods
blamey
manipulative
hollowed
newborns
acquaint
resonating
resonates
resonator
resonators
surgeon
replaying
snagging
b002gk
b002i0
b002tlt
b002wlg
deterrent
audiences
audiotech
audiophiles
campaigns
illumnated
magnificently
alienated
494
4900
faintly
jawbone
pbj
pb9011
pimp
pimienta
widespread
zebra
zeppel
##borough
##749iq
##3520
bronco
bronzer
verticality
megagear
conviction
convien
conjure
spiderman
spiderweb
scooters
perfectionistic
perfectionists
deserted
mattias
academics
suppressant
geniusmods
journaling
olympics
52x
eagles
ejects
ejecting
friggin
foscams
fundament
hillers
luminosity
migrate
ragged
tummies
yielded
##ographed
##169
threatened
reappearing
reversing
coached
coaching
agreement
crosstre
contribution
contributed
financially
interfaces
coupling
couplings
corrupted
possessions
honorable
immerses
immersing
1981
duplicating
experimental
diagnose
diagnostic
unscrewed
fossilized
gt701d
gumbo
gummi
gummies
groin
groan
groves
hr23
jenny
jenna
jenga
junkees
juniper
junichi
mesa
pooped
rvu
racers
racquet
seduce
sigg
tasking
warden
wardens
##engineering
invented
whitaker
stimulate
stimulus
shouted
septic
orchard
##amente
degrade
degrades
degrading
consendation
conceive
conceals
concealed
argues
clayton
blingy
slingplayer
nightstands
infrastruct
reflections
detergents
detoxify
presidential
reproductive
invalid
restarts
1304
homeschool
reccomended
cpap
cpus
ethan
ethics
ethiop
maas
mais
nspire
rooft
roosevel
woolf
##27t
sherwood
propellant
dolores
exfoliator
plumbers
adopt
adoption
scorching
intricately
intricacy
carbide
##000is
seekers
incoming
incomparable
imperials
imperialist
imperfection
diabolical
contracted
b00cwy
b00casdz
participation
participants
controversies
waltz
splashguard
dissolved
sanitizes
aesthetician
exhaustion
exhaustive
implementation
5x7
ahp
dingy
gaggle
kinven
mercenaries
nescafe
nurture
paso
paslode
zenith
##hooter
whirlwind
prisoner
chirp
exploitation
recommeded
recommanded
arnley
grasping
intimidated
pollution
polluting
pollutants
phyllis
inconspic
interpreting
105wt
cardioid
cardiovascular
indentations
b0071n
b007fp
b007by3
sunnytech
transitioned
treasures
treasured
mistakenly
richardson
criminals
convincingly
shadowing
boundary
cuddling
cuddly
cubbies
catered
fibromyalgia
fretboard
huevos
mdf
mx4500
mantis
mantra
nao
naomi
nests
pmbok
wreaking
zv427
zv457mg9
##c7v3
##burse
thunderstorm
thefts
reuseable
lilac
dovetail
chaotic
chinchilla
cannabidi
atmospher
freddie
cosamind
spiking
discharged
royalties
graters
gratifying
gratuitous
intentions
pharmac
contourhd
swiping
skylar
extraordinarily
b00b2g
b00bfoey3y
b003z
b003v2p
condenser
traditionally
geometic
geometric
tablespoons
anchoring
1bkvx
1bkze8h
orchestral
emphasized
culver
dreariness
gaither
nudging
nonslip
pineapple
raids
santoku
tavern
taek
tortoise
ubi
ubuntu
havn
exchanges
buddhist
spatulas
unlit
unlucky
unlatches
clawdeen
gloria
resinates
receptor
conspirators
warriors
contraptions
infected
b00g6
b00gqp
b00guxze6q
conductive
saddened
170lbs
toothpick
toothpastes
dissipate
dissipating
dissapoint
dissapointing
principle
sterilized
sterilizer
sterilization
restricts
geekbuying
accelerator
mysteriously
kirkland
embroidered
5800
58mm
68169
averages
bastante
bowser
corsets
dandel
dumas
glycemic
glycerin
gurin
hoovers
katavi
kinky
kareoke
lesbian
mutants
ouya
ocs
perturbed
paused
pausing
rulers
tapering
zuca
##ueling
##wyp8
##683
##2bx
##2bxy
##onalds
reeves
reeked
reebok
briggs
brigmon
liberally
liberation
liberty
seperated
seperatly
choreography
choreographed
suicidal
abraham
spools
reconfig
recreation
cranks
glockens
deformation
gibsons
embraces
b00s8j
b00s749iq
chrono
netbooks
midwife
distressing
explosion
explosive
folkmanis
bursts
supremely
flavoured
flavouring
hydrox
hydroflask
pixelated
scottie
scottish
podcasts
aquarina
disassembling
judgmental
astonishingly
coordinate
coordinated
consequence
interpretations
lubricated
biloba
dorian
ffx
kurumu
kombucha
nvr
ronnie
sqft
sqaure
sausages
vigilant
wicker
##writers
revelation
aspirations
aspirator
aspirators
shimmers
chocks
chocked
chocking
sulfates
succumbs
succinate
##ulsion
trollope
##artedly
enlighten
enlightened
compounds
adheres
unboxing
overcame
fluctuates
tekken
sapphires
hogwarts
colonel
colonial
crusar
crusade
charlton
readjusting
speckled
contaminants
10x20
regrettably
corrode
indianapolis
b00fal
b00f5j
b008dz
b00004oc
pottery
district
distraught
horrified
temptation
trackballs
shotguns
buttercreams
ferrite
ferrara
incorporate
incorporation
incorporated
incorporates
diligent
crocked
crockpot
victorinox
pronounce
remodeled
remodeling
891
baffles
cathartic
datadisk
douglas
eccentric
fetched
gourds
hindsight
kernel
nautical
nautica
nibbles
p3p
pestered
pamphlet
ranking
sioux
tx10
tattle
tissues
wsj
xdm
yaris
yankees
##ruitpro
##1bk
topple
toppings
andrews
inheritance
bruising
brooks
supra
suprise
suprisingly
workbooks
unloaded
##ableness
mangoes
handicap
handicraft
carousels
drooling
monticello
actuator
actuators
rescuing
resembles
defeats
incidental
incidentally
b006z2b
marathons
conforming
confronted
confrontation
irrespective
morocco
eyebrow
salvation
firefox
harvesting
fatiguing
macarons
macaroons
macaroni
skepticism
unbearably
ultraviolet™
predecessors
renewal
demonstrates
diagram
jerkies
cigarettes
fulfillment
inhabits
witnessed
sculptor
discreetly
aquariums
cappuccinos
480fps
austin
austen
austins
auspicious
bombs
bakol
bakery
bakblade
domain
eclos
gypsy
hormones
hatches
[...]
